node {
  name: "dense_24_input"
  op: "Placeholder"
  attr {
    key: "dtype"
    value {
      type: DT_FLOAT
    }
  }
  attr {
    key: "shape"
    value {
      shape {
        dim {
          size: -1
        }
        dim {
          size: 7
        }
      }
    }
  }
}
node {
  name: "dense_24/kernel"
  op: "Const"
  attr {
    key: "dtype"
    value {
      type: DT_FLOAT
    }
  }
  attr {
    key: "value"
    value {
      tensor {
        dtype: DT_FLOAT
        tensor_shape {
          dim {
            size: 7
          }
          dim {
            size: 32
          }
        }
        tensor_content: "\031\203\257>\232v\242>p\301\242=\t\214+\274\027\321-\276\224G\025>\245\214\255=\021U\240>S\206\310\275\340\025\365<\330`&\275\344B\017>\037\005\245><R\321=!S\320=kM\244<\032\376\350<%\356\231=^si=\177\006(\276\316\207\224\276\2725\331>\222\024\242>v\254\024?c\252\273\276\363I\234>\250\272\357<\350\373W\275\370\222\221>L\036\025?\245\214\324=\214Fc\277Hy\326\276\253\205\303\276\271*\360<\311f\307=n[\266\276\242w\246>\332\037\020\276\222,\231\275\304\033\250\276\274Y\016\275qS\037>\033\024\211\276G\337G>\223\216>>\360\322\370>9\370b>f\034*>\275\221\215>\345\336]=\177\263\207\276\250\025W\275 \350\221\275a\354\250>\236Q\017>\020\323\371\274\277\220Y\276$J\"\276\336\367\237\276\365\013\267\276/NM\277\"p\235=\247\211\301>S\276\265=U\274\213\276\222/\201\275\220\006R\274\211\353\010>8~\037\274\247\355\005<0\000\367\273k\241i>\031\252C\273|i|:~\2304\276\376g\261=\273HA\275\236\335<>m\221\230<\036\021l<7\202(\275\337U\257;qWw>\234\306\204\275\020y\333\274\353\035~=\363\037v<PZ\022\275\177\374$\275P<L=7%<\276d\256v\276\014\252;<\350en<1P\371<`\360\215\276\231@\214\2761s\016>I\033\374>:\026t>\367\301\336\273Br\224\276\360\341\177\276|\343\\\276\035\223U\276\216\003)=\344\272\225>\322c\027\275G \014\276k\376\260\2774\323\030@\265}\272\276\277\272@\276\334\227\367\276\341tk\276\247k\270>4\332\204\277\302c&\277j\214\347\277\\\337h\276,\002\211\276D\320!>0\262#=\274\307\274\277\234b\010>O\346\013\276e\025\264?J\334\244\276?\314Z\276&\341*>\333\220\374=\212O\200\275\260\314\205>\201Rx\276\227\225\002\277\317\346;\277a\361R\276\177\216\t\277HR\215\275\017\276\036?\233\375\232>\325\203[>\016\004\357\275\304\031\025\277\317g\035?u\347\357>\261\264\234\276t\302^\276@\376\366>\207rQ\275#H\325\276J\251\n>\235\201)\275\\#a\276o\316\233>:\217\275>\302\246\242\276\017=\003\277,\301{\276\252\200\336\276\311\370A>\247Ij\276\2359*\277\"|)\276\205\2664>\\\203\037>\021\205\'?\350Yf\2769\014N?\025\342\363>\262\037\325\276\312\371\032\277\334\360\252\276\234\305\235\275\341\200z>S\035\023?\315\314\017\277\275\241\337\276\022\246\336\276\344\216\207\275\n\206\247==\340\337>6\235\212>\202\263\246\276\r\224\013?]\276\272\276H\025\235\276\325\300\315\274\274\217@\275f\266\002?}6\177\276,,e>g\351\035\274\240\000\"\277\352\356\252\277\230\352\\\276\275\252>\277\021\255\001?\237\321<?\253\004\201\276\024\317\251?\203\343\253?d\036\241>\222R\250\277\361\005\300\276\360;\035\277U\270\315>\315\313\212?H\034s\277\345z\245\277\342V\212\2762x\267\276Mc\373\276--F?\277\016\t\277Y\273\247>\331\014\233?\376\363P\276\236x\215\276h\201\365\276\030\302\206>\266p\255?\007c\007>"
      }
    }
  }
}
node {
  name: "dense_24/kernel/read"
  op: "Identity"
  input: "dense_24/kernel"
  attr {
    key: "T"
    value {
      type: DT_FLOAT
    }
  }
  attr {
    key: "_class"
    value {
      list {
        s: "loc:@dense_24/kernel"
      }
    }
  }
}
node {
  name: "dense_24/bias"
  op: "Const"
  attr {
    key: "dtype"
    value {
      type: DT_FLOAT
    }
  }
  attr {
    key: "value"
    value {
      tensor {
        dtype: DT_FLOAT
        tensor_shape {
          dim {
            size: 32
          }
        }
        tensor_content: "\245!\300\274\317V4\274\367\034\017\276\241\000\305>y\261\225\275k\214(\277\001\367\023;B\013\261=\232F\001?n\243\222\276@\325\004>\260\0171\275\314\375\265\276\315\022\335\276Z\203 \277p\035\247\276\234 =>Opv\276\345\320}\275\207\020\272\275\000\000\000\000\225\034\r\277#\355>\277\300e\240>\000\000\000\000\224o\342\276\215)\201\275\000\000\000\000\267\360\030\275a\357\343>z\001L=\317K\006?"
      }
    }
  }
}
node {
  name: "dense_24/bias/read"
  op: "Identity"
  input: "dense_24/bias"
  attr {
    key: "T"
    value {
      type: DT_FLOAT
    }
  }
  attr {
    key: "_class"
    value {
      list {
        s: "loc:@dense_24/bias"
      }
    }
  }
}
node {
  name: "dense_24/MatMul"
  op: "MatMul"
  input: "dense_24_input"
  input: "dense_24/kernel/read"
  attr {
    key: "T"
    value {
      type: DT_FLOAT
    }
  }
  attr {
    key: "transpose_a"
    value {
      b: false
    }
  }
  attr {
    key: "transpose_b"
    value {
      b: false
    }
  }
}
node {
  name: "dense_24/BiasAdd"
  op: "BiasAdd"
  input: "dense_24/MatMul"
  input: "dense_24/bias/read"
  attr {
    key: "T"
    value {
      type: DT_FLOAT
    }
  }
  attr {
    key: "data_format"
    value {
      s: "NHWC"
    }
  }
}
node {
  name: "dense_24/Relu"
  op: "Relu"
  input: "dense_24/BiasAdd"
  attr {
    key: "T"
    value {
      type: DT_FLOAT
    }
  }
}
node {
  name: "dense_25/kernel"
  op: "Const"
  attr {
    key: "dtype"
    value {
      type: DT_FLOAT
    }
  }
  attr {
    key: "value"
    value {
      tensor {
        dtype: DT_FLOAT
        tensor_shape {
          dim {
            size: 32
          }
          dim {
            size: 64
          }
        }
        tensor_content: "\177\177\355\275\207%\002>\301\254\'=\347\373?=us\017>\320\251=\275\344.$>\037\340#=p\003/=\210\201O\276\013m\264=h7\364\275I\023P\275\215\362\003>\353\177\037\275p\345\214<\230|Q>\377\205l\276\253\223\223\275\216\263\244>\360\377\'>\271\n3><\273\376=@\247\317<-O\006\275s\356v>\373\033w\276^\311\024\276\213\300\211\275\036K\243\276t\000\020\276r\315\321\275<\013\034\276\370\313\375= \025\332\275P\005\343=f\274\232\274\016>\272\275(\311\244<\251Hu\275\360\240\206\275\246\341E\276(\tU>\245\330(\276\205/\277=(4\t>\030\001\377\275\300\366a\276\235c\304>\337n\261\274X\036\265=\270+\304>\253\275\023\2768\213V\276Zw\354=\364\226D\276\375j\216\276.\347X=l\374\033\276\000P\017\271QHO>\035r\">\323[T=6\036\325=\250\016T\276Y\017;\276\376\3044\276\030\325`>M\2213>\220WU=5\'\027=9\357+\276\270\213\310\275\361\256I>\351\206H\275,\370I\2760\035\245=\010\275\023\276\311\177?>\226\363\216;\360\013B>\231\263\270\275\325/\333=\213\222p\276t\262?\276\254~A>\230\3220>\030\256\277\275\000(Z\274\031\024B>\300\244\334=2!\306=\361\020\327\275\364\001\024\276\350\264-\276;\376\205=8\271z<\000#,\273\300,\256\275$\3410>/ \302\275\006\373\313=~\2460\274\214!c>\325kY\276\027\212\371=`\233\300\275X-\212\275\'{\014>\024\254\016\276W\234\213\275\010\007\014\2763\r4\276\226Lo>h8l\276\335?\355= \312L=\350\336\336=\037\240V\275\000\323\322\273\rC&\276mqE\276\210\004\245\275\340\206\313\274H\217\237=\240<\004>\240Z\335=\353\333\033\276\240\225\000\275R\031\325\275\306\225:>\263\340H\277h\035\000>;\3132\276\270z\023\276ed\262<[F\203=B c<l\252\324\275\'\034\t>\351\366D\276K\037\234\276#\014<\276\203\365\337\275@&6>\353\213\003>\026</>DS\'<\270:\014>\345\273\325=\036\315\306<\034OH\276\363\246\331<\347\201A\277\207\331Q\277V\263\266<\240]y\274\033\313\003>\330\030\002>\002H\341\274\351\215\"\2753y\241<a\206?\277\303\255$<\205\211w\276Q\006A\276\006\3563>X\367\\\275\347E#\275\266\271,=\220\266E<C\332\255\275\333\321R\276mxa\276#\n\211=\310\177\227\274\265\340r=\373^)>\220R3\275\'\000\305=\004\364\260=\317\363W\276\374\377\367=A\026P>\030\314]>nY\360<\207\023I\276\331\250\\\275\356+,\276\324\206J\277\t\274\216>\264\375\204;\344bQ?\022\273H\276\323\036G>\336@3\277b3\320\276!\\J\276\324A\200\276#\316\250=\366\301\336<\266V\000\276o{@=\311\225[>\261j\036\277n\254D\276\245g%=O\260\277=\300\033Z\275\221\237\316>\212+\321\276c\265\025?\327\365+\276>\2303\275:\203\016\277\370\n\023\276\211\231\t\300n<\210\277\320\256\016\276\360\316(?\322\352\250>\372\203U>\310\331\246\275\177\035\367\275\272Z\275;V\206\232\276\2338\227\276-N\033\275\334\254Q\2774t\317>\276\304\253\277\3126<>T\337\210>\357\277\251>\345\301%<\305\200\270=\237/\003\275\t\340\205\276\023\233\202\275`\241z\277\214\235\352\276\205\033\205>U_\212\276n\255\347=\004\256x>\027r\314\276\261`\376\276`\025\340\275E\003L?\243D<\276@\370i\276\027\016&=8\\\335>I<\320\275\253}k\274\021\375\214\275\220\345\014\275\3430Z>l\300\336\275\327?Q>\217Q\320=\350f\036> \222\007\275r\270\361\275^W\315<K\203s\276]b\025\276\350Y\022\276\235\234~\276@\371\177>\313&U\276\327\035\r\276`2\373\275\343\321\020<<A7=\332\314 >\010\\\244=\336\204\306=:h\231\275\000\370#;\005m\n>K]\265=LA\302\2759U\213\276tG\017\276/+\002\275\030\005\207=\307\274\357<\223Kf=\240\336\033>pX\276\275\300bk\274E1#\276k\033\326\275\014O\032<\323\372[\275\351n#\274\010n\033\276\200AR\274\353\354\010>\266\177_\276`v\204=\236\033D\276\370_v=\302\206\313\275\315\376\334=`\225\310\275\325\240\267=\331\253c\276\320,5>{\'@>\273\2530>\177\345\337\275\020\331H\276\364\224Q>\350d\212=\3535\"\275t\005[\276\203\330\034>)D%=\353#\330\276\256d\001\277`k\021?(\312\275<\354\224G\274i\016\211\276\374V!=\254\374\226=\242\203\230\276\303\247\244=\354>\010>\3529\316\275\375\256\241\2765\265\032\276^Sg\275\256\337\322<`\357\303\274x\363\017>\225d\247>\344\236H\276\014[\203\276#\251\315\274\330\322\205>\313\262\034\276\202\274e<\305\232\233\275\213\035N\275\257\361\271\276O!0\276\025\207\026?\322,\237\2757P(>\020\3073\276dw$\276\177Y\253\276\337\342x\276\322\340\010?\204 L\275\014\265\330>\366g\216<\2640\373>u\330]\276e[\003>B)\227\276\360h\213\275\265.\266\275\354\004\316>\036l<?NE>>\366<e\275\000\377\375<\345[\342=\007\202\253=\336RZ=\243rJ>\317\337\206\276?L\277\276\032\211\262\277q\325 \275\226wD\276\345\035\275=^\t*\277\266C\326\275\\\222\316=\266\017\314=\036\"\302=$\245U\275\207\364\003\276\236Y\265\275\360F\325=\223\371\200\276dn\316=r,l\276G\300\213\276X&v\275R\256W\276O\232\002;\332@\212<&\221\025\275\302P\311\275\356\006\017\276\363\027\022>\350\324\023\273\215!:\276X)\230\275\315z\363=\355\001s\274`[w=\323+~>\273H\022>\307#%\275\356\010\363=\242m\311\274\314\340-\276\334\251\026\276\355\036[\275\345\240\206=\371?\225=\266PN\276)\272\013\276>\227#>i\350B\276k\220\031\277\205q\207\274\\\203\014>\032\361\245\275g\225^=\347[A>\0370Z\276e\2444\276Jq\t\276\202\334d\276}\204\301\275\021\017\342=\200\206)<\002\030*>Ku\272\275\250&\263\275\364P\033>\322m\000>\370x3\276Sq*>\000\361\235;\337\315k=\214L\362\276*cD>\302\023<>\320Y\353:\014\354\220\276\340\303H\275\234\227(>wRr\300\257\213$\277(\237\273=\020\365d\276\245\266\242\276\3627\216\275\244\367|\276]\322\236\276>\004\271=\262\323\331>B\2669\275\373bG\277V\205\222\276\200:\364<\327\361\262\276\263\227\272>>\211V\276\304\207\212=G3\364\275\356\\\365\277+\302&\276\317\002\022\277\311[p\277\360e\263\300!E\240\276[\346!?: -\276\023L!\276\204\354\033?J\034N>\000\013\345=+\024\234\274\004\205\235=/\325\017?\323-\325\276\"\255;\276\312\266:\277@\302\316>\207x*?\272\315\335=\\\272\010?\315\207\243\276\022\021\201\276bq\025?i\216\004\277\027Q\316\275\271bq\2762\261\031\276s\275W\276U\316\275\274G\314\204\276-\3501?(\017\227\276(\324/> \343\315\272\360p\257=\301r\"\276\316S/?\372f\330\276\363\363=?IVC?\223\307*\276GX\267>W[\365>PR\233=\033\010\374\276\3606\244=8gw\276z\270q\275`\217@\2769\366\037\276\306\326\221\276h:\214=\207\273\200\275\336\261->c\2749=\030\264\262\276\220\346%>\253\376\220=\003\204\233\276[L\232\276\330\3762\276\201\366-\276\355A\205=\200.\273\273\251\005\275>\032\205\237>\210\360[>$.\021\276\246\313,\2740\363(\276p\n\221=\rx|\276\254\324;>\007h\224\275R\303L\276\267\337C>\016\320`\276g\232\312>1t\207\276\325\305\221=G\304\010\300\337\374\002>\200\200\027>\360\035\367>5\362\320>\252\351\037=\356\220\272\276\035\017|?\255N\370<B\363\317=\325]\013\276\022\225l\276]\354\352\276\220T\355\275%^\376\276\203,\307=\304\330\322\275^~\023\277\340\347\246\274\013Sq=\037\211\367\277\357\r,>\203j\001?IB\220>\312\001\'\276\3235\006>\014Zi?X\204\214\275\000\036\213=\221\021a=}\327\022>Rl\236=D\242\262<\016\327x\275\237\237\234\274\2402\276\275\354?\373\275\306\337\022>\274\2075?\357i\311\276\212\263\334\275\334|\007>\322\322\245?\021v\255\277b\340\255=\0104\343\276aW\356\276 \376\371=!X\236?\264\274\020?>\005\206?6W\267\277\253\267\010>g\252\301\276\230\030\321\275$c\006?b\215,>\300Xr=\346I\373\2752\251+\276w\354{>\344k*<Y\225\017\274\351\271w\276\3638\260>\031\221\331=\200\265}\275\000\327\014?\350\"\036=\244v\240=\210\032$>y\234\261\276\007Y\n\276\226\256\226\276\241Bz\276\267\235\022=B\273\201\276\241m\322=\365\"}?!\232\275\276\014\217U\277\232\220\020\276\342\034{=\317\372b\275\266C<=\341T1?+\213\000\277tBr?m\313Y\277\221F*>\020\032{> \220\254>\223GQ\277\r~\331\275\0061\365=\215\273C\277\222q\034\2766B\263\276do?\277)\247\r\276\256\330\177>T\206\263\276\316\020M?(\203k\2772\312(\276\214mi\277[yG?\302\n\242\276\217E\016>\032\022\344\276\r\232\246>\251\251\"\276\303^\253\276\374})?\235!s\276\264l\010\277\225^\026?\351\211\350>\271m\241\273P\266a?\263)\030?\272\315Q\276PJn>\366\270n\276\252\373;?\334\236\001\2752\260\313\276\353\331K=\033\240\334>\233U\007?B\r\376\275O\0329=\324\350\264\276V\270e:\341\333d?\370\346.>VP\220=\266\320\002\277\233U:>U\024\273\276O\025K\277\347\2532\276\226\232\354>^\240\023>\276yY>\214\273^\277d$9>K]\201\276\037\"\215\276\266\303<?:\201\270\276\204\252\003?\200\320\271\275\032\225\014\276\353K\r>\0203\331\275\310O\021=\014\017b\276\020p\037=\237\2421>\260u,=\014$:\275QK\266\275 \001z\275`<\023>_([>\213\376\013>\310\334+\276@5\351=)\242a>\222\214k\276\213\301W\276P\305>=))h>\360~\261=\330h\277\2750\324\273\275\310i?>\001\304\210\274\235\355\016\276\201O\265=\366\326\202=\354i>>\303\224\272\275pKv>\320\202\024=L\252\005>@\307\354\274\244\315\237\275\\n \276\351~\342;\003\372\303\275\241\224X\276\001\027\332;`#\327\275\321OD\2763\177\314\275\320$F\275\303\2475\275\376\202\200\276\226\272\026>\261N\035>\344\\r\276x\222\356=n\377L\276\210\374S\276f\373\277=\214\240A>L5K>\030=\311=@\306j\276\000\302\331;\276t\340=\240\001n>|Xr<!\221\254=\366\374\364>-\250u?\245\273\240=l*\326\276\335I??i\226\'\276`\320\313:\222b\024?\215\333H\276\235\255\233>k]!?\020E*\276B\245Y\277ns\344>e\031\020>\223h\"?D\371\352\275n\310\013?\035$\032\276p\371\261>b\262\357\274\274\257\365>3$\207\276J#e\276\273\373W\274)\2633\277g\034m\277l\351\346=\332-\014\277\2253B?^Kz\276\337\335\005\277a]\373\276\373\023\263=\211\336g\277\024T\217\276-\373\314\276OR\000?\177\001,\277\300\014x=wk&\276\205\236\322\276\367j\203\276\230\273\257\277\211y<?\024\217\005=\030Q\277\276[\333\276=\317y\203>x\2218?\227\007L\275\025\373\020?k\035\022?\021\257]\276%\253\224\276\210\212\342<\0023-\276-J\200>\306pi\276H\200G\275*2\250\277\237\277\343\274S\357\214\276\374F\345\273l\207E\276\"\350N\276\016\331\233>\212\024%>\007\232Q=\212^\265\275;\312\356<& [\275\'z\374=\215Yc=\026/\205\276E\007\200\272&\226(\276\224\211I=\302e\224\275a\007x\275\240h\311\275\321\330Z=\312t4=9?\257=\010\207\207=H\206B\276\271\014\003> \301\340<:\024a9\217K\232=\256\211s\276=\214(\276]\\2\276\023\340\223>\260\303\020\276/2\203=\202\226\230\2752ND\276\271\270\357\276\330\331\367\275\215\203\375\276D\001 \275JS\003\276\372v\256\275\210$\001>\322\222\303\273[\313\240\275VDg\276\306\234F>\036\306\211\276;\234b\276kt\262>5\266K\276\336\221\263=\300m@<\257\271\213<DY*\2750K\'\276\376\004\246=\212\000\327\275r^\217\276\360{\025=8\320r\276\227\007\033=\276F{\275\357fu\277\007\241r=\021\243\177\2765\344\010>s\320;?D\224l\275\243\243{=\273\262C><\221;\276\265\343o\276\324\030H=\0012D\275p,}\276b{\031\274\334\n\\\276\306d\317\275\007\023\230>V\177S\276_\030\336\274\267O\352\275i5\275=\264\216\r\275\215\230\020?Y\222K\276Ic\004\2767\322\374\275x\024\014\276\276t\023?_3_>\036\021g?8\260\037\276\260\322X\275\236QP?\240!\343=w\354C>\022\037\272\275?W\007\276\324\022\'?\013\331,\276\265\357\374\275\234_\224\276\261%r\277\377k\230\276,]\223>\312\347\031\276\030\002h\276\r\220l\2775\321g\275\254\242\000\276.\377\036>x\361\224\276\004J\005\273\006N\245=\330O\234\275\0027v=\016\037\350=\3601\216\276\367\344-\277]\005\223\276\213\330\t\277\221\230\231\276\260\254K\275\350\002]\276:\207\267\276\307\230\243\276R\354\377\274\177a\247\275e\204\036\276\233\324\356\274^\251\262>\270S\262\277s\200\023\274y\266b\2760\233\263<\024\225\263=\270\341c=\307\306\227<\245!\315=i\3017\276\262\266\241\276\0338\010\276\237vP?\311\216+\276}UZ\2760f\t\276?)\335>\2120\255\275:\301*\276\262=\311>\242\345\037\277\320\317\026>\312!\362\276\315\001(\300\331\001\214\277a\\\007\275`\340 \275\002/\254>\353\337\210\275DKw>\202\366\313=\271$K\276/\316\361\277\240\001\242\275\374\225\352\276\353o\330>\265\356{>>\263\031?\223|\036?\237\333 >\227\344\005\275\254\240\346<_\024\315=\246\351\215\276\203\300\034>\237\377H=\036\276\016\276q\203\366\275<\250\222<\352|e\276\241\024\263\275iC3>(|\325=2\202\"\276\316_\"?b\303\223\276p\262\313=\371\340\023\275\244\225!\276\\Kk>\022\263+>\376\367\006=\372\242%\277\2411I?t?\276>\305q\274>|\037\t\277\002\2305\276\203\3444\276fOI\277\375\277\021>\t \234\276\367\351\240\276\377SG\276_\320\302>X\315\221\275\273>\305\276\221\365\025\277\207\347\260=;\226\\\277S\304=?\22714\276| k\276\326\256B\277\247\254\327\275\350\021\270\274\301\304\221\276\231zq?2\315\352\275\013p%\277\253\237U?\330\215\003?\370\023\016\276\262(6?\216\006D?_\201\032=|\177\'?\250\337k<\347K[?<#:\277F[\214\277\230#2\277\003\255%?\024\273\007?\233\254\262<\0023\r\277\r\230\017\277\277\366:\276\351\345\025?\030 \207>\303\306\031\276\000O\033\277`\325\313<\373\310\311\276\323\226\000\277i\262\263<\240A\303>A\330\006>L^\353=\333\020\205\276\277\337\300=\000\313\223\275\020\226t=\235\357\007?\206&\251>F\246H?A\246\026?\321\020=\277\371\337\014>\332@j>Z\200\204>\223\307\302=\250ye\276\232\256B?O\001\n>\366\372+>\360\327E?A\007\026\276\244\025\020\277\335\336\375>L\n%\277\313\t\023?lV\211\276\257B\022?\370t\212\276\001\335@\276\224\261\023\274\241\0336?\243\351\241\275\267\225\266\275\203\361S\276\t\017\r=S\004\300\276\332Y\211>\300\003\333\276_\241&?\026W\232;\306r\036\277H\322P\277v\365e\276@\3145\276YN\033\275\266\323,\277\207\0074>\303u\353>\254\2153>G\3307>\275\222b\277F\234\210\276O[\311\276;\201]?\002\n\360=\263\372`\276Ok*?\237\354\027>\337>A?4yk\276\241\n\021?\002}%?\']\332\275\323:(\276\000\252\261\276\220\374\326\276Tp\331\277\020i4\276\2669f\2763\177\354\276\017\270\221\277\317\003\204\277\3629U\276e\"\276>\2169&>Q?\030=d@\370>\nf\322>s\246\243\276\355D=\276\242\360\002>K\204F\275d\364)=\317t\332>\340\231\327\274;\276\023>{\007\262>\014\360C\277Y\301\342>\326\333\014>*\311\354>\314\345\017\276\335\2008\276\364\225`\275\n\210\364\275\320\022\326>\274\237\016\276Z\005\323>\306\2176?\230);>\327\272\272>1\300\372\276\311\026\336=C\304\'\276\244\207\240=\025i\312\275\303\"\025\276\262\336\360>\322h3\276\240\267\256\276\336\323\247\276\226\363\237=\203\177U\277\242\014\361\277\373\242\233\276.\003\207\275\246\315\005\276W\270\024>\376\2268\276\253\330\304\277I\266\347>0\031\366=I0\253\274\014nH\276\272\033s>\355r`<\273\311\206=\0135\304\276\261\002\342=!\321\027\277\003\334\332=n\271\030\276wf\021>\036Ne\276\334\325\317\276.=D\277K\0307\277\354\350\226>\216\177h\275\210\021\014=(\265\223\276}\215\232\276\\+\t\276 N\216=\370\231\204>h\313\272\275\356\332\017=\272\227\356\275\314\345E\276Cy\210\276Z\222\265>\263M^=\340\245P>\330<C=/\013\014>\271\250\356>%-\217>\367\232G\276\032\3361>\223\251e:\270\314\257=\306\374\033\276\250hu=[\374\205\276\241\036\256=A\272\026>\213MH\276\300\335c\275\347\333A>\350y\241\276\250\207w\276<\002)>6\3257<D/c\276\261\210\356=\375\232\205\275\007\230\233\273jg\036>[\177j>`\341\004=X\320\362\276\247\030\303\275}M1\276\224\252)>\367>\270=\314\306n\276\347\374\337<\270CZ\276\203,\003\276\3040\"\276\000\371~\276\373)\222\276\365\224a\275V\337\213\27626\347>\320\344q=\376\214p\276\315z|\276\221\330\214\276\276\363\007>\247>(\273`\343\253\274\240\014\374\2754\221}>Lyi\276`M\266<\374\305?\276\000\177\352\274p\316\364\275\230\214\301=L\374\034\276\024\036i>@\372\367=\000.\216=T\357E>D\347O>\020]U=\350vg\276\274\370~>\000S\254\273\230q\265\275\350\tu>\330s\235\275\200\025\305\274\320\026\366\275L\321N\276d\240M>\354Mj>\320\333V\275\210J\'\276L\230 >@\362<>@\204\223\274\220c\365=\324FZ>P\016%\275p\016N\275\374\023B>\360%@=\010\205\333=\214\352U>\3609H\276\000Ps\271\200\3407\275@\316L\276\344\317[>\220\257a>\024Gc>\320IZ>P\221\236=\240\314,>\200>Q=h\023`>h\0249\276\360\310\255=x\345\352=\244(V>0\237\270= Y =`\2459=\300\306\322\274`;;\275\024SP\276\230*5\276\360\313\030>eD\n>\001\202\275=F\255@?\354l\365\275?\367-=\334\\8\276,\310\251\275m\370\240>\002\345\311\275\300q\306\276\213i\007>\265,8\276\002e\273\275\033\331\356>\241mS\276\032\004\200>\220\377\306\275\005\306\231>\315\363\216>\257\2044\277\327\243\203\276/r\316\276\350\303\343\276\004R\276:+\336F?\207}\010?\026\025\367>\346\037\271\276\204_\301<\351\005\347\276\360x\331=>\363\224=ynk\275\026\3550>\335\320\255\275\000\206y>x-\225\276\273\230I\276<3\323>\262\316\327\276]K\'\277\nQ|\276\250\250!\276\316\013\350=\220\277\205>\344\326\266\275\347\307 \277t\2300\277;*5>\363\014\215>\300\r/=\212\267\273>\016O\264>*\317\010\276d\325\307>g\374\010>r\206\025\300$\267\270>\261\202$>\222\034&\276\356\3424>\340\302\314\276F\303\201=\217\203\356>g\265\275\276\2644\274>\342}P?\367\247\004>gR\036\275\200C\211\2741\270\335\274\242U\020>\253\355s\275\317H =\227\345\006\276`\345s\275\035\250\017\276\022l\234>\3144\202\276\254\341\037\275]\353\261\275C\237\016\276\354\271\261>\223\362\024>l\302\267\275\25274\276\272c&\275P7z\276\261\374\037?X\220h?\352\244\353>\216<\337\276\272:\022\276u\331>?\204\021{\276\373\267\220\274\236J\035\275j1B\276^\273|<\351\311\t\276\273G7>{_(\276z\261\221\277\372n\231\276\267I\024?\207V.\276\202T\277\275A\214\256\277 \345`\274\t\326;\276g\014I>\321\223\037\277\333\250\312<\321\214\277\275\360\001\217\275\223\370\002>\365>N>xoU\276\227W\241>\245o\231<\025\014.\277\036*+\276 h\r>\002\273\205\276\031{.=\213\341\241\276\332\260\r\276\000\241k>wO->\251\370O\276\207\223\327\276V\261\256\2779\352l>\3735\234\276(\275i>\250\256\013>d@\034\276U\316\225=z\206\305=\2735-\276\2549\017\276]\362\304>\312\340\374\277\036g)<i\n\220\276\341Yv\274\272*7\275\347\216\375=\354LZ=\021\333E\276\271\360\325\276\000\303\212<Po-\276\325|\201?\254\202V\276dg\250>yz\202>\261\322i>\212\020E=\010\337\335\275\036\370\033>\3162\034\276\353\314\327>\270\320\200\272Dp\315>\251\004X\276\022w\357=\342\035\222\277H\004\016\277\362\320{>\214l\021\272\323x\254>p\t\211\273\230\336_:y\374%>\351G\\>\r\004\006\276\234\207X\275\273\225\r\275\342\211U?\337;F\2759E\217\274\234c\252\2751\020\207<\275Q\233\277\033w\256\275p\024\370\275\232\r,>+\2509\277b\320\220\277\306\304\224>s\025\356\275\210\'\304\275\210!B>\274\220\037\276\004[\016\276\220Bl\275\350\002\334\275\274\353\002\276P\202[\275 \010\324\274\200\002u>(\213\263=\000\303/\275 \022\236<P\023\263\275\370\014\336\275\024\242<\276\2346I>\310K\213=\224\311>>\024\352\000\276\360TZ=h\037h\276\250\317\021>\000M\035\276x\321\325\275X\223\355=\010\252\251=\200\374\301<h\'%>P\353\332\275\024}b>X\231\357\275\270z\016>\3209r>\320\2667\275$\032\003>\370\002\362=@W\275\2744\2262\276\020\327v\275\240\023?\276\300\305\002\275\324\375)>Lv]\276\250\331\217=\210\324\300=\364\363\010>\364\213q\276hF\211\275\250e_>\014Fe>\000\254!<\\\3310\276\244\035{\276PHV\276TH?>\340\327\235=4Tr\276`\354\266\274\340\230\326\274@\352\367\275\360+o\275\000\300*; \244\274\275md\323=\321\272\215\276\324x,>\364Q8;\t^\244\275* \030\275<\340\275<\222\356\245\275\0232\311=Ju\225\275\014Gq\276\234\214\201\275\311\275]>\3045\273>\202\205!>\000s_\276\267\2470>\324`\213=\247G\366=\310`\261\276\032\330=\276\275g\360=\273\247\223\275\233\353\025\276\260\215\t?1t1>\212\034G?aJ\340\275\210\272\377=\307\352\255=\210\177~>\005\307\"=\r\336\244\275\016yH\276\313\301w\277\223\335B\276s\357\216=\016\262M\276\323\024+>V\275\250\275\300\353\003>\303\037\346\274\014\037Y\276\361`\336;F\244\260=5\037\\>&5\276=\021\204\373\276\275;\316=\036\377\203>!\255<\274\"V\214\275\006\274\345=\266\223\023>\2213\217>\324\030\277<S\317\207\2766\336\025\2768\246\360\275\303\330\n\276\205G\273\276\251\016\r?\262\031\272>9p\241>Y\356&\276Mz4\276@\260|\276\213\215>\275\334\302\001\276tnr\276\240\"\302<\2721>\276xP\323\2754\032`>p*\271=\200\232(>\374\031\013>\025md\276\263\230\257\275\233\007\277\275\324\2458\276\"\356\200\276~\307\023=)L]\274H\232\316\275P\227\352\2746\251\267\274`\353\362\274\217\350\177>xY2=^\302H<\'\363\334\274\241\200\026\276U\347b>\350\033\265\275\232\252\202\276\371\270\264\274\2500\325=\030e\211\275\204\230M\276rcK>o\227\303=<X>>\344p*>\\w`>2\276\204>\004=W\276\332U\343\275\331&\022=4\372\001>\303\000%>\360c\361=1\377#\276\310\235\374\274\374-\006>\300\234C<>1\032>\3306F>4\2126>X#\336\274\301}]\276Hx#>\224<`\276\340\323o\276\237\256\335=\375\003\330\274&7D=\264\205R\276\334\264\016>@B\362\275p\202&>\200\340\304\2750\335~\275XsL>\274\230`\276\310\243\364=l\321>>\030\227\377=\360\'z>Di\021\276`H\264=\\\332\037\276\360\247E=P\260_>D\227x>\300\335\220\275`5\244<\264\377\034> \234~=\010[ >\360\360\001=(\236\256\275\200o\327\275\200\305\006<\360E\311=\354!m\276\374\323R\276\370\352)>`\025\177\276l\002\025>\250\350\032>\260\350\204=\364\030S\276\2106\246=\254\2044\276\000\376\\\276\360p\365\275\344k]\2764vj><\r\"><\027k> +\274\274 \002\025=Pb\203\275\200\352\375\275\300eM<\010K\247=\030\271:\276XJ\004\276\020\026v\275\034\253,>\000xF<\220\\Y\276\360\366\355=\230\303\363\275\3008\332=P\335\027\276\260\232:\275P\246 =x\031\030>,\tG>h\354{>*&0>\344\224/\277\354\373\274=\356\200\003\276Y\355\203\275a\0136>\210F\020\276$\033F;\321\331\372\275\007\252\203=\027\005\225=\351J\337\274\335\330T\274},&\2764\333\301\276\241\263*\275\030!\320=\202\036\007>\244\354\261\274\t\335\261>\367}.\276\320T\013\275\360^\236\275F\027\212\276\350\2415>N>\347<\307\017\342><WA\276\354\034@\276)\037u>\270r\235\275\304\033\337=\300\256\354=\333\306\264\275\213\355\215=\264\212\002\276.\377\211\277\251\362F>\353\200\353>\312\262\022\277,\336\t>\347\213\221\275\000\\*\274z\216,>Z\355\275=ah\326=\301\217\202\277C~b\277\333e\316\275\n\234\225\274\220\214\215\275\233\\\354=|&\021<\r2\026=E\301\233\276\263VC=^\257\017\300\001\005\031\300\014)\026\275\200\037}>\004H]\277j\207%\2763\007K>\014.=\276\321E\002?\217\364\260\276\204\255\224\276X\362D\277\247\323\341\276@\263\241=\317\213\265<\\\337d\276<\nw\276W\007P>\311.\037\276\255\241Y>d\254,\275\016E\246\276\237\367&?\\a\353\274\240\010Q>\266\301P\276M\216\204\276\252F\311\276\014%\177\276l\263\210;W\372\306?\340\3069\275i\351I\277~\256Q\276|$\256\275\275\370\010>\010\341\037=\212\210\237\273\220L\215=\333Y\313\276=\266S>S\301N\276\035h\252>$o\307\275;\177\305=\372\217\354=\220\204\266\277\013M\216>B\317;\275b\347\214>q\032\204\276M\'\231\277\214\241\375\275\315rj\275T\006\205\275\034\306\221\275\324q\246\276\024m\022\275[\266\327=\320\002p\276\321\365\241=S\3721\275\355j\020>\345L\005\275\227A\002?\273\372\267\275\000hg<\216: =\312\365\372\275\250\275\360\276[\342\265\276\303Q\211\275\373\013\302\276\307\227(?\304\210\321>\255\221\257\277N\317#\277\301\301\240\274\3433\233\276N\324\273\276`\365\222\276\240\252\242\276.\310\007\277\313#\035>\227\351\300=\030\207\023=\035;\373\275\3353\034\277e\024\201=\027#\n\277\334\001\345>O\224[\276\036\005\302\275D\230\277\276\201\234R\277\200\302B\275\205\275\216\276\326\247\266>\212,M\277\034\365\307\276\010T\025?}\025\037?Y>J\276t\305\"?MJ\276>\232\232\\=F\271\270\275\032\034\335=-\276b?\346%\017\276B\330\216\277\310\002\201\275\013\311X>G\\\037?m\2365\276\302?\371\275\301\245\006\276\261\005=>\350a\001?\372\242=\276\350\035j=\022\213\017\276\332\024\336\275 *x\2761\026\267\276\037\345\314\276\211\264\n?\265\350\226\276\235\200\206>\ng\375\276H\257\257\275\002E\217\276\t\304S\277\007\024\370;\376-\200>\370\300v?[\220\036\275\206\026\341<c\205\230\276\307M\323?.\'\263;\360\3328>\271\317\'>\243{\004=\270f\202\276/\260\r\275\277j\332\275)O\205\276\371tw\276\203\271\333\275&e\264?\213\362D9\016\344\263\275cV\224\275DY/\276)>\265>\233\244y=.\343l>E\3621?\215\"\361\275\335\355\204\277D_\240\276\001H\215>\200|j>\355@\271>R\204\247\275\326*\331=\241\177\335\276\206\236\204>d\227\216\2758\n\223\275\\\\\225;\242y\245=\n\036\312>\264\314t\277O&\010?\327\261\356=Ee\277=\017\036\215=\350g\237<\036\372\246\275\344fJ\274\360\254\276\276x9#?\321\217\233\276\271\0309=\000\300\3509H{\332\276\216\022\233\274}Qt\275\346\334\240\276\357\361F\276m<\241?\252\024\214>\004/;\276\307yp\276\2258\277\275qo\177?B\313\256\276%\304\035\276"
      }
    }
  }
}
node {
  name: "dense_25/kernel/read"
  op: "Identity"
  input: "dense_25/kernel"
  attr {
    key: "T"
    value {
      type: DT_FLOAT
    }
  }
  attr {
    key: "_class"
    value {
      list {
        s: "loc:@dense_25/kernel"
      }
    }
  }
}
node {
  name: "dense_25/bias"
  op: "Const"
  attr {
    key: "dtype"
    value {
      type: DT_FLOAT
    }
  }
  attr {
    key: "value"
    value {
      tensor {
        dtype: DT_FLOAT
        tensor_shape {
          dim {
            size: 64
          }
        }
        tensor_content: "\177\252?\275\037\227p\276.O\025\277\253\251\203=\214_\021\276\223\351\212\275m\230\202\275\250V\207\276\340\000\226\275\"\344\036\276:bJ\276\301\334\001\275\325\277\345>\222\206\241\276\225\331\247\275b\270\371\274)\005\002\275\360O\332\275\203t\236\276\215\256\265>\252\375\025\275\2573\266<\220\307\312>|\341\001\275\305\374\202\276\206\007o\276\357\267\n\276\026\037\355>\375\322\355=\023\3145\277\275\273%\274pV\372\274\260~6>\310$g\275\252\246\232>^ \270\275\007E\273\275e\351[\275\334\3155=?\344P>S&\t\277\342\354P>\315\350>\275.0$>`\361\027\276qxd\275\207\204b\276&5c\276p\017e\276\007\376\031\275;\007\375\2747\3772\276\207\266\010\276\035@\207\275\371q\225\276.L\375\275\213\356C\276U\224\333>\225\032\002\275o.=\275\326q\362>\320\344:=Vr\223>A\335\265\276"
      }
    }
  }
}
node {
  name: "dense_25/bias/read"
  op: "Identity"
  input: "dense_25/bias"
  attr {
    key: "T"
    value {
      type: DT_FLOAT
    }
  }
  attr {
    key: "_class"
    value {
      list {
        s: "loc:@dense_25/bias"
      }
    }
  }
}
node {
  name: "dense_25/MatMul"
  op: "MatMul"
  input: "dense_24/Relu"
  input: "dense_25/kernel/read"
  attr {
    key: "T"
    value {
      type: DT_FLOAT
    }
  }
  attr {
    key: "transpose_a"
    value {
      b: false
    }
  }
  attr {
    key: "transpose_b"
    value {
      b: false
    }
  }
}
node {
  name: "dense_25/BiasAdd"
  op: "BiasAdd"
  input: "dense_25/MatMul"
  input: "dense_25/bias/read"
  attr {
    key: "T"
    value {
      type: DT_FLOAT
    }
  }
  attr {
    key: "data_format"
    value {
      s: "NHWC"
    }
  }
}
node {
  name: "dense_25/Relu"
  op: "Relu"
  input: "dense_25/BiasAdd"
  attr {
    key: "T"
    value {
      type: DT_FLOAT
    }
  }
}
node {
  name: "dense_26/kernel"
  op: "Const"
  attr {
    key: "dtype"
    value {
      type: DT_FLOAT
    }
  }
  attr {
    key: "value"
    value {
      tensor {
        dtype: DT_FLOAT
        tensor_shape {
          dim {
            size: 64
          }
          dim {
            size: 64
          }
        }
        tensor_content: "\320\2545\275nO\275\276\337\017s\276\365W\014\276\010\3561?YG<\277\367,L?\014\261\235\276\262\342\230>4u\352=P\346\027\277\202\337\274=\370\270\244\277\243\3168>)\274B\277\267\315U>\333<\r>e\314\022>\256\333\300\274~\233O>5\255\002\276\313\347\324;\363\232M\276\350s^\276u\242}>q(\311=\262w\004\277X\003\200\276=\356\274\275\326K\235\275\006\232\020\277 \366O\277\034\201}=\234\177\253=\216>\303\276ntu\276\301\257\005\275Ae\331>;K\026\274>\211O\276\213\316\247=\234(\356\274\207\325X\277\374\377\253\275\213\035-\277\354:\315\276\373\026_=\253\230M\275\247v\203\276GR[\276\335r\241\276\335e7\276\244\323\032\276=\022X\274v\345\200\275!ZI\276\014\226=\275\232u\247\276\3239\373\275\002\244,\276\n\310\027\276>\225e\274\226\313\274\275\264\352(=v\207g\275\201\220\332=* Z\277\003l\265\276\207yi\276\336\"n\276a\245\t\277\365\005\306\277S\321E>\266n\346>d\353k>\360Q4>\024G\370\277\273n\273>\210R+\274\354\326\037\277vi\222=fa\021?bz\245\277\301\025M=,L\235=h\312\212\275!.q\275\244\033\317\275\'J\271<\0144r\276z\370\r\277\336\341]\275<\377\303\274\030W\243\274&\305\375>\315:\237\276\340|\356<\206w{\275\257\365\325>\004h\215>LA\013\276\304o\212=\340Ej\276\237\rP\276\352y\021\273\007\037\323<\035J/?\267\025\272\274\312\222F\277\217\252\301>T\342!\276\314\251\307=&y >L\036\252>\326\363J<1\341\221\276(/#\277\3677\355=\337\217?\273S(\355=\326\202\226\275Y\ro?\350\300\201\274\253O\326=\263j\367>\205\037\027?\005\244 >\'\205:\276\237s\306=w\311J=\'\037_=6/\324\275\262q\025\277z`,>\3144\226>*\371\207\276\343\2025=Q\3306?\342G\325=\306D\033\277p\347\216=\3334\257\276B\030\362>\004\214\271=\226\023N=o\347+?Q\237\242\277\232\346\002\300\204;\007>\000Q-\276\017rG\276\201\365\013\273#\275\234<bC#\276\000O\313\275\360\323\034\276\227F\013\277\301\226\346\275i\2451\274\"\2644>\002\020\003>\333\211\226=\026\356\205?i\340\232>\002\343*?s\330\336<j\275\020\276\260:\026\2769\267\230\275\347\267\325\275n\262\327?Rd\342<\207\316\025\276\020\254;\275\342\333@\277\272\270g=\304i<\277\200\201\366\274\313\030)\276\263#I\276P\n9?\347(\003\276\037}\036?\245\322J>\211\"\004\276\013\270}<\235zn=\300\232\373=\260;\020\277\221\347\004?\211y\364=N\037\335\275\221&\001\276\314\210\264>0Gc?l\265\024\277k\025\020\276\2144Q>3\312\'?\262\213\310\277c*\246>`\350U\276\254\351K\277rw\263\277#7\357>X=\324\276\217\034\337\277q\375\236\277\320\340\020<j\266\244>\267a\320\275jG%>\305VX>\0247\022\276\334\323\327\275v&$\276c\027\024\2778\301\005>\266)\202>\'\244\225=d\360\336?\351~\320\275\332\rV=]E\337\277t\024\375=\342\343\000=[\372\221\277|p\026\277\261\341K\277\343\223\335>g\274l\275\275\r\217=\353\373H\276\'\314\036\276t\266!\277h.$\276\n\324y>\374\376\320\275\204$\023>\261\013<\276\262\357\002?\267\216\215>\243\211S\276\220 B\275\212\023\247\277B\0207\276\302\325\314>!\346\274\275\230.\035\276\235_\213\276\325\226A\276#\343\032>\2757\037\277_\033Z\277\327\322H>:\215\352\275\2107\014\277N\000\353\2778%\304\276\244\347\033\275\347\200\245=\2042U\274\341q|?(\276\226\275\312{e>\230\315\227>\210\217J\277\217\273\357\275Q/e\276\377|\242>\206\024\025>\376\201Y?i\247\026<\023`\217\276\347\006<\277H\te\276`\361\213\275S]c\276\232Y\363\275\010\350\373=\302ys>\257OV\276a\256\003\277*\332R\276\363\316\244=\302\235\241\275\326\245\243\275\301\335\324\275>\345\355=\220bP\276B\020\277\276\351\334\202:\216\224>>\316\013q>\367\0240\276=dj=\025\323\345\275\356\1778\275\251~Q\277\261\337\255\276[>\013?\3437\211\277\323H\006?\315\372\005>\2643\216>\337\345~\274\364K\301\277\256\260?\276\301!\270\276sy \276\276\026\013>\030\222q\275\307D\201\276\364\332\005\277\265\035F\275\254\000\251\275\217\311\211=X\375\'>\022v\230=]r\320\275M\344/\275\260\345\021=\177\033\007\276=K\205=/\2354>W3\005>d\245Z\275\000*\277<\2315\304\275\316\364\354=\254,\021=\271r\004\274S\034\266;p\023\r\274\335Z\035>\010\344$\275\315\030I>:])=\242\354\370=%pb=6`\312=6\225\262\275\3677 >SW\313\275\330qP\276LP5=\206Y\276\275r\217\352=\334@/>\237\3142>\220\276\267=\252\301\260=\237\354S\276\377\354\347\275}q\366\275\221g2>\300\334\303\273\034sZ\275\027\255%>\322u\342=0\206\254\275\365\356#\275\316\310,\276\005\352@\276\333\340k\275\263\344\005\276\304\"7\275Y\256\005>\300\323\021\276\206\370\306=\224#R>\350\247\005\276\240*\247\273\254\302\303\275\270\363\322\275\326M\355=\252\332\244\275h\354\333<\300\320\226\2731\220\t\276\315\373/>P\030\002\275\t\233\202=Qd%>\365f\263\275\207\2201\276\336\371\026\276\225\334\002>\023\032n\275t\2478>#\246\003>:\000>>\251Nv\276i\000\357\273\037\337\352=&d\377\275\024R\200=\226f\007>)\033(\274f\374\177\275  \275\274\215\354/\276\266\200\320\275\276g\">\273\035\007>$\026?=\342\260W>\325\030\217\275\367\036I>\334\360\246=\252\330\353\275\360d\252\275\256\377y\276cI\002>\246\2137=\257\273\033>\200#$\273\364\256\244\275d\253\265\275\351?@=tW/\276h\305\226=:\351\232=N\203V\276\000\024\330\275\273\235\305=K\315\230=\271ZF>M\316j>\346\253\033\276o\365]=\277\0233\276\234ay=\2225;>\266%\330\274\3103(\276 u\r\276t\217?=\333\007+>\342\305Q\276\304#f=X\224\204=\234\253\266\275Ug\021\276\333\tK\276B\303i>-\205\035>\035)M>\003\031y\276\262(_>\355\2274??\307\333\276\311\225\025\277\221\331\200\276\330\250j\277\206\022L=\306_\270\276\013|\355>\273\316:\277m\216\310>h\352\007\276<|\355>t\316h?K\245(\277\257<\\\276T\034?\277\265u\242=\237;\016?.\232=\275\253\207i\276\025J\">\277\032\021\276#L0?\250\376\232=\266\307\310>\276\336!:SJ\250>\213\363\271\274\216p\000\277i:c?\237w\302=j\342\222\276L\257M?B\376\334>]\2061?\0232i?\006\217\035\276\205\030\220=T\207\"?\2356\247>\210\342~=|\256\246\274\361P\232?\006 \347\276\357V\r?\346r\243\275%\256]<V\362m>\004F4<+\204\333=\325\241|?\246I\224=\235\013>> \344\265\275\035\326S\276\227v\263\276k\357\234\2765\345\264\275\367\360C>\302/\020?vm\342=\265\236\270\275\367\364E\276\225|\356\275\0057\017>\n\213\250=\273\300\000>\247\034S>\272B\356=\342\234\324=H\026\\\276\026=\306\275\007\025\313\275\217\007\377\275\245\251\253=2\246,>\007\313\031>\204\331\177=\277\315?\276\236\344d\275\005e\017\276\336\344\244\275\352F\254\275-_P>\033\357\004\275\277\377\203\275\3436/>\0360-\276\240\376+\275M\177D\276\325\215\002=\320\001O<.P(\276\277X\247=\264\270\006\2755#5>\001\271\234\275\270\305\274\275\267\344\274\275\246\302\315\274\374\234K\276\322\371\223\275\177w\315\274#\034\005\275F\320E\275VU\320\275\037r4>|\242\252\275z\033\320\275\206\221\001>\210l\310\275$hJ\2766$H=\017\275:>b\230H>\220\0271\276v\316\216<4\205-\2766\020\231\275\010\325\312\274\223\361:>\036\273\344\275o\303w>]\003\024>f\335==7LH>\200\270\302\273:u\373\275\372\026\017\277\264K\343;\030\377\017=\256\271\211>\365\314\214>}-\242\276\023\225]>9\262\274\276\006\350q>?h\325=\260\247\214\275)\001->e\253\227=\306\022\005>\024\337\270\273Sd\204\275\307\035\225=E95\276\351\033C\276\256\233\211=\332\274\210\276\2308\005\276\3632w>\265Y\315=1\215\371<\336\007\035\276eWE<}\325\006\276\341HL>\013\261\003>\255\017\300\274Y\332\023\276\330\205c>\324u\013>\013K<>n\007\026=W\001g\275\021j\036\274<\305\030>\2379\t>n\0363\275\325\337\213\275\255\361C\276&u\255=\210=R\275N}\035\276o\213\215\275\246L\000\275\341\265\344\276{\034\034>\004\264\317=t\037i\276\275\372\200\274\314\253\331=\304b\303\272G\017h\275\363\312,\275y\004a\275\271Tm\276\017\326\n\276\322\250v\273\031\202\276\272FC\240\276\014\257\253>L\200\321\276fE\273\276\340\352\020=-\214\244>O\264\r\277\275e\343=\362\r4\276p\255\232>\006Qp\276e\355\332>\301\035\224>P,\030?\\V\007?5\203\237\277C \270\275\r\272\316\276\273\357>\276\277,\254\276\360\340\332<M\005\323=4\024g\274\361\221\300\2752\264\033?}\363\261=\303\3723>0 \\\276\262Y\277>\264\367\320\275\316k\235\276\220\'\016?t.f\276\227\217G\275N8\305>P\354\221>\352Kc?\331\220(?\302\206\333=\n\374\277\273I\315U?@\023\n?\267iI\277\203\004:\276\264\360\351>\177\244\227\276D\332B?\374\347\341\275R\376G\276^k\337\276\220\357\223\276z\332\221\2766\373\004?\025\271\370\274MZ1<\266\323\353=\t\340f\275\202\213\325\276\177\013\345;\303a9\276\274h\215>\023\304\324>\376.\252\276\204\n\256\275z\336M\276\005\3376\276\322\232\336\275V\225\277<\374\374v>P\266\313<\321\224\247\275\255<;\276\314=\257\274\213\262$>\202X\222=\214\231Q\275Yo\007>\033\2232>\021\246\332\275\014\036\021>n=\376=\2341s>\355G\301=N?\017>\316t\206=\033\225@\276\271`5\276\260\371\016<\320\270K\275F\364R\276\032\027\345=\333=B>\346~\276=\031K\013>j\201\316=\251\276W>\234\312\351\275\360\373\214\274\002\252\307\275\352Q\316\275T\303`\275n\365,\276\034BC=\2408\020\276\244\336\'\276\303$\001\276\373\206$\276s\2568>\006b\370=8\231\344\274\311\233Q>\000\300\216<\247N\215\275\211o4>\213+\020\275R\031)\276\371\033\036>x\373\247\275\255\263\036>\271O7\276tB*=v\021e\276pp\267\274\354\370r\275\201\323S>\2542\013\275\035\2062>\213(\022>\211\341\234\275\\\345\352\276\242\300\035\277my\301>#1\270>\332\006\032\276\264\265\212\277\370\234\'?\257\347\371=\\\265\000\276\324\342#?|,f=\025\230\245\277LCx\276T}\327=\n8\016\277^\244!\275\333\305\216>\213\226\221\276\323U\276>\377C!=\264+@\276\262$0>7\244p\276\250\013g\276\315\367F\276q\322\376=R\3179>%\036W?1c\351=\263\357H?\n\035\356>Vk\031>A\262\244\275+TS9\311y\021\276\346\345\016\276\332Ca\276vL\214=\332i\023\276/\200!\277\030#\027\277\177\267\351?>\270\006\275\003\rk>K 9>\220\202\001\277\nYK\275bC~\275\335 g\276\253\325\240?m\241b\274H\252\214?\261\323\003\276\313/\362=\0067H\276\306\257!\276b(\202?\246\327\006\275\223\021\274<\216R\241\275\213\022\233\276\274\320\361\275\241*\307\275V\375U=}\020*\276\32326\277\250\357\225\276V\027\353\275x\257\241\275b\327\010\277\334]v>q\251D\274\314TW\273\305e\003?d\273R\275\235\256P>U\224\221\276ad?\277z2\020?bN\212=\247_$>\032\001\210?eX\205\277\204\030\252\275\332\241]\276\305\036\243=V{\n\276\374z\266>\205\213\n>\243\200\361=\317q\300=0\330\007?\274+\006\276g\013\227>\257\\@\277\003_W\276\245o\030\276\377\235\243<\307f%?J\025@=\006\351\007>7\360W\275\206\244X=\030\204Z\276\n\375Y=\372q\032>\246\227\354\274\006\200y\276\223\301\002\277\313\225\265=hZ\346=;\230d\276\014\302\206\275D3\372>\266:*\276\005g\035?\313\215\315\275b\316\311>\322\033{\276\306\240Y=e\'\357\276\355?\024\276\322\344^\276\203i\222>\367\0004>\305\004\252=\240\260j\276\277\n\033\276%\313\270\276~\241\205\300\302L\235<y\311\254\274\221\326*?\321 \230?!\256\000\300\200\r0\277\255r>\277P\352\006?\3177E=\317\307&>\347q\216>O\346\365=\211s\365=\005\222\207\275\\\323\"?@3\314<\006c\226\274LRJ\274\234\226\002=\302F\r<\010\035g\276;\256\026>\020\033\231;\337/\257\277\003\363\342\2758p?\277^\255\274\275]\302h<`\342[?\036\361\014\276 r\250\276m\333\332>\214PV?\003\336\262\276/%d\275\220\373\304\275{\350\034\276\340\353`>\367\276V\275\222\325?\277\200<\231=\375\230\304?\035\034F\276y\347\377=\236s\354=D\\G\276\021/]=\245k\334>G~\203\276\000\210\016\274&\266\003>*\242w>G\227\243\275\223\225\312\275\223\322\201=C\033\032\276}\353\005>n\365h\275\313?\231\276\241p\372\275P\017\245\275\"TE\277\260\347\305\277u\335\220\276T\003\314\276\3533\271>/\020\001\277\0361\223?\315k!\273e\205\300>\261\315y>IN\224\277\036D\245=\251\267\316\273$S\375=\312/\317\276\203\324\356?\216(i\275\312\007\267\277\331/\232\276\354\224\265>\325\257)=\022@C\275_\312\342\275\264G\244=|y\017?\t\255\304<&|W\275 X =\344=\r?*\356t\276\3720+\277\202\347\006\277W\337\r\276\221\376T\276Jo-\277G\332\'?\245o\273>\317\215\361>\2774E\276\333u\020=\024=\322>\377\217\253>qa\274\277\226\331T\275_w\261\277}\252\024\277\323A\332>\323e\002\275\222\245\034\276C\217\020\277\233\ty\277\307X\225=\350\377\227\276P\233\216\275\237.p\276@\031\200<Sr\223;\247<\372\276\325C1<\\s\177\275\204\355\305>\346\002\373<\3503\202\274\357\334\265=\366\352\223=\t\365\230< \363\277<\340i\266\273\"\207\356=\371Y\034\276g%\225;+\302B\276\246sI>\260[\355\274d\\\"=\260>\256\274\356\343\261\275\314u\034\276 \342g\274\266T\323=\033dO\276%\320.>\024\256j=u\255\242\274\3505$\275\316\352\214=\224\310\t\276\2121\302\275i\343\030>\230B\234\274D}\257\275t\\%\275\002Q2\276\226\370\306=\214>\303\275\255\0177>\260\177\357\274\367LB\276\346.=\276\255\235\002>\210\226a\275R>\200=`\005\243;\350\023\262\274\240\242\376\273\232*1\276q\327[>\2005Z\275 C\202\273\177\2502>\344\212(=;\2634>boT\274\2726\361\273\275</\276\371\236H\276a\304\355\275\223\271\007>\310\036\321<\0144F=\026o\322=\211a\035>\306\301\017\276\225@D\276\232\006\330=S\020\335\275\344\227g=K\211\347\275i\200;\277V\365\240\2770K&\277jr\320\276]\276\277>,[\336=\000{0\276\006\037\026>\227\367\211>\260\\\025?lCI\277,\236\266\276\303\207\211\275\031\213\034?z\355S\276\344\331\031@\311\201\216\276\014O3\277v\014\343\277(WQ?\003\260\276\273`*\270\275)\275\263=\007\375.>\321\343\037?\r\352K\274R\230\334>\321\343\031>*\206\305>\353\356\245\275\236\034@<%\326\344>K{\025\276>\246G\276[\312\275\276\000g3?\330U\032?\200\372\026?\241;\312\275\366\214\002\275\035\313$?\201/c>\366\360\202\277ao\023\276*\232\250>\336\317\247\276\260\303v?~\240K=\254\317\365=\321\311\t\277\364\361\266>\314g\037>\343\036\007\276\'\374\212=\372\200\301\275\016\217\376=,\030\244<\205\007\335\276\373\327\026=J\345?\276\261A\213>1 =?w9\263\275\240\245H\275\3169~>\317\031\302>\353*a=>\324\371=\2349T\277\"4\\>\026\343\020\277\236C\223\276\020 \007\277\330\313\227>\354\272+?\213O(>\277A\002=7\003\321>\2710;>\035!I\277\361\371V\274\262\031\271=;\355\204>U\3669\277\313\256.\276\033)\370\275\365\035\321\274\026un\276\337;\275\276y\205%\276\353\000\351\276\375\242a\276n@\262\275\370\230y=\343\305*?q\242P?qAw\276=9\341\275\256go?\344\0141?\341\225\\?^\203\312\274jd]=\203Y$\276*\235\230>\036et\276\323R\216=S\236\251\275\352\021\334>\026\270Q>\275\343\371\276\010\317H\276\025W\013?\271w\031?\374\376\342>5\325e\276\305\023\277=\177\251\222=I\202\030?^J\257\275\231$\n<\306\226X>\260\232B=B\312\032<\017\223\252\276y\361}>\235\371\365>\361p\025>\300\020\211\276\304{\230\276\233\256\203\2766N\243\276\266P\307>\242\317A?\307\353\371>\222\357\202\276\017\270\002?%\301\r\277P\244\005\277\247\254\314=d4\r\276a\260\201\276mAI\276\227vw>XC\237\275\373t_\277\225\375\307\275\313V\262>\307p\245=\330\226w\2761$N\276b\3047\276R\217\321\275\327N.\276`\225a\276\026\341\014>J}\006>8\264N\276\315\300\201\276C\377Q\277p\215\005=\321\'\315\275\375\265\335\277\005\022\365\277\373\000`=m\314*\277\334\002\000>me\270<\310\356\021\276\370\323\033<\320o\004\277\236\000x\276\266\003\317\276\227T#\276\254\323\203>pk!<\275\303\272<\242\342\336=\312\227\033?\235\371S\276\251\036\367\277\006\004Y\276\017!i;\207e1\276\023\301\275\275)\330\027\277\226\225\312\275#\'}\276\200\312y\277,\337\027\277\365\272\227\274?e\230\276m\222\'\276\031\377>\275#\213:\276w\023\317\275O\312\001=$\355\006\276\244\360\315=\332k5\2765l\200=\020\250+\274%2\322\275{z\231\274\237-(\274k\007\315=\310!\027>d.\303=\251\216\375\2751\017\245\274\310\236\375\275J\3050>\252\202\335\275z*\253=F\022\257\275|\025S=>\301\371=\303\355I>\002*\301<F\006?\276\250\350\326\274\224\261J=\241\254\202\275= \323\275\201T5\276\216\343\225\275j\301\'\276\320@\217\274\260e\334\2756\007\352=V\206\376=\24733\276\304\240Q\276\361D3\275\243\372[\276\363\006P>\261\253d=\013\r\270=\214\323?=\020\264\244<\315\212D>_K1\276\tEL>\200\002J\274\212\366\240=\200.\316;\010N\204>)\336B>\226\255\360=\306\306\236=\240\2331<\202\030\314=\272V3>0d#<D\233\373\273\215\3149\276+\270\235\276\021\034\t>3\"\334\276g:`\276\343\327+=\255Tl\277uI\352\276;f\366\276\224\221!\275\364\244\234\275\222!B\277\221E+?\223\221#>o8\230>}\243\233>\357}\240>x\004\276<}jH\276\366C}>E@\017\276\345\305\352\275\353P\301\272\340\323\312=\345\n\010>\334\336\216>[\2228\276\010w\032\277\2534\007>\254\0147=\327\272\204\275\270_\334\276\314v\230\274\356\214\030=\310X-\276\203@\260=$)\317\276xm\270>\024y\353>\361x~=\260\3370\276\022X\353>-,\013?\270\261\227\277q\032\316=\326\2617\277\247\372\235\277\225\335\216>HA\010\276\232Q\021\277\313\373\366\276\006\221\233\276\200\325Z=\035\363A>~A\025\275\231\362\031>r\335\210=\206\277\022\276\300;y\277\356I\300\274\240\266\326\275\242@\206>\333\210\324\275Q\347\252\276%\201\254<`\271\265<)\'%>\366e\006>\331\271\352=\225\037\275\276\330U\021?\264\204{\276\215R\203\275\244\271.>\006L\362\275\361k\003>\370p\035\277\366w\204>\234;+\277\330\342\273\277\267\323\330>\304\3760\275\300\rA>\203\204\225\276\252\371\355\274?pJ\276\345\217\234\275\234\313Q\276\274c\'>\373mN<\202\334\261\275\'\365\037\276\277\036\027\276-b\352>\342[\315=@[-><\213}\276\034T\257\275\013\\\321\275%\331\254\277\367\016U\277\233F_\277\275>l\276\217q\262=\275\347\254=\363%\236\276\216<Q\275e\232\233=\313t\016>\277\360\255\276G\300\266=\360VR=*#\t> \232\363>\253\366y\276\301\217G\276\270\230\205\276>\355 ?z\357\353=\240r\344\276^\344\270\275\035\356\244=\375)\211\2763\2175\276\300\3628\275&\201:\277\243\207\240\276\276n\321>\316\274\370<\307f\003>.\016\254=\335\201\016>\336<R\276\001#\022>\332\033\201=\253\353\021>\214\2471\275\203#A>\264\364#\276\210MN\276qo@\274Cw/>\002\326\324=]\001|=K\336\037>\314CF\275\360\263\257\274i\3712>\310OM\275sQ,>\315sY\276\230LS\276\274F]\276$F\031\276>7\214=z\036\005\276\'<\037>Y=L>\323\216\035>\367\351&>\0334B>\277\371I>\251mJ\276\326<=\276j\235\331=\230\330\303\275\265\177?>\224ky=\330\342\026\275G\213\330\275\326\346B>\236\264\244=\206\240\325=\262\354D>\2222@\276<\001\310\274\224\314z\275zW \276\210\377\007\276\002\307%\276\315_N>\227t!>n\356\321=0\301\331\275\361\350\025\276e\020A>\370\266_\275\247\333/\276p.\205\274B\220\213\275\320\033\267\275;\"\025>\004\'1\276\243x\206\277\213\377S\300\374\030\362>?)!\277E1\204>W\227\014?~\270^\277T\312\206\276\332\336\003\277\255Q\327>\013\363$\276W\312\222=S\332\026\277\254\252\342>\302\370\305\277{\014\240\275\332\321\031\276<F=>\343~z\276Z\377\330>\246\320`>mg6>,*\205\275\260\223\335\274\276\357\317>\261\027\t\276\000Zf>\005?O\276B\027]>\302\030\'\276\016\n\372\276\033Eu\277GVW\276\363\336\246=\334\2202>T\236G>9\215\213\276z\030|\2763>\311=(\002]\276A\301\230>k,\200>t#\225\276\227\300U\276]\2020\277\235\006\021\277kA\014>\260\006r\276!\336\"\277 k\216\277p\227\037\276\347\010X>\002\343\232\275\263\305\262\275\207ZL=6\027\037\276\313\010\253<\275\372\025\300\001;\r>h\203.\276Z\232\t?/`\023?5U6\274\224\250=\276\273i\241\300tzJ\277\233m\026\300\031\316\207\277\2517\033?\025\\a\277\020\201\244\300\247\357\227=>R1\277\234A\014@\322F\025?\273\360\324>\331\016\250\300\034\332\251\277\372\316v=o\232D\277\033\224D=\214\245&@\374jQ>\343vz\276c&*\276\001s,\276`<\332\275\267\211-=\260\tO\277\214\226\367\275\370\377$?`F1\276\221\276\230>;\024R\275\374\305\210\276\346\335h\277\020\220)\276\214e\322\274&\305\340>\0270\002?\237\007\303\276\376\006\242\276.\305\017\275\271@W\275;\220\213?\266\314y\277\345\364\t\300;\234X\276\265A\251?\352\301\342\277\202\\L\277\256A\267\274\377\307\366\277\235C\367\276D\025,\300\316\357D>!\222\030\300\206p >W\037L?\266\3016\276?0\037<\273\026\022\277S67=R\345\212=\220\335x\2756\241\230?\324j\031\300G\037;>Y\320\357>\325\355\332\277\225\342.>\037C\202\2775G;?\"\245@\276\277\224\261\277\372\027,\300\006\252\211>gPz=\247\023\007\277S\357\344\277\256\353\305\275BX\366=\347\267\336\276\234\246\370=\321\272M>\016\214T?:I\266\2764\231\254>(R\207<E\003\037>kD\005\276N\260R\276w\344\343>m\314G\276\200\222!>\367xN\276\257|G\277\221%\315\275\006\206\022=\212\224`\277\"\320\350=\021\024\023>x\250n\277\213\'#\276hV\004\277*$B\276P\327\332<P\266\003\275\223=\312=I\230\216>\242\266Q\277@\236\270<\223\354\035=\311\203\340\276\016\320\371\2769JK\274\370t\024\276F\355\331\277*\234\037?\320\037!=F \221\276\242\303)\276X\017\215\275\000\264\264;U\377+=~\263\253\277\006\212r\276\367W\332<;\002\252=\252\003\201\300\317\266\364\273E\025\230\273:\207\034\277>\3371\277\007\017G\276\227\356\225\276\341\224:?G\263\204>q@\234>\277r\215\276\314\3165?\347?9\276\367\255\277\277\261\007\252>\217{\227\276?T\242\276!\262\006\277\005\267\037?um\332\275\270u\267\277\324\313\231=~\330\037?c\337\206\275\352\246\341=\335\345M\276\321\324\246\273/\303\013>\3232\336\275:\202\"?-\334G<\n\006*\277%(N=/\275V\277m\230\253\277\365\n4\276\371R\205\276\315\266\254\277\3559\375\277\035\377\250\2778-\316\276\276:I\276\334/\310\275`xi\275\031\375\216>\251\304u\277\273q\363\275\030\214\016\277XQY\277r\360\025>j ~\275\352&\337\275%\236\215\276J\315\377\276\0337\236<\237\323\016\277\007]\324\275\223\363r\276)1S\276B\021\277=2i\333\277$\030=\276q\302\255=\021NX>\275\010}\277f\327\023\277\372\251\220\273i\221X?\356\312\037?\203\270\034?\002\027V?r\343\322\276\337\364,\277\014$-\276 O\212>3\272\367>+R\017\277\235\006\303>h\3621\276\350!\230\275%\242\016\275\257\271I\277\314\2378\275\316\202\201=\220\356\302\274s\362\262>\254U\253>\002\021\355:0\006\023=\032\327\221<\360x\306<\304\363M\277\332!\366\274t\332_\275n\014j\276\316S\001\277a\000+\276\335af=\277$\216\2761\006\374\275(\025G>\300i\276>\305@&\277N\330\314\272\377D\233\277\302\372\014<\211\215F\274h\336\264\276@?\002\277RM\001\276\3469\013\276\001\311!\277\332\201\200>\310\224\377\276\363\231\007\276\243\214\017?\006\257\r?\221s\r\276\314\037\006><e\237>\372\267\354\275\211\353\024>`Ra\273\236M\327\275\003\240\240\276\306\241\236\275\215\024\361\274\n,B\276\307\3122\277Y\230\262>\033-\246\275-\257\340=\005\025\236\275|Y$\277\253\346\323\275TDt\276b\276\350>\243 +>\246\245v\300\022\321\252<\3552\200>\262)\274>\304\320\375\274\372\337\314\277\n\326\252\275#*\244=\324\336\320>\374\271C\276\243w\211\276\301\310\224?&\227\375>\264\247\\\276\276j\007\276(\252I\276\004]\337<&\025\357\275\252\027\274\275#\367D\300\231\025f\275\021\\\033\275C;@\276\005\025\202\276L\231\333\274\376\3058\276\3517=<\032\332\275>\024f\r>A\177v\276\013\343\t>\3237\316\274\274=\034\276c\214\251\275\311\206\324\275\215\205\357\274U\311&\272{\014\257\277\235\013\204\276\342r\305>\021_z\276\270\021\007\277{\2377?\203g\270\275\250\222B\276\375|F? \226\031\276_\311+?\020\307@\276\350\224_\276\277\013\343\276B\243\033\276\234L@\2752n\206\277>\021\305\275L/\177>|d\177\276}\264 =\3608\276\274J\0139\276\034\340\247\275K\243\377\275\353T\223=\336\323\300=\353\376\372\275H\363#>\367lF>\021;;>\356j\243\275\270\326\331\274\302\321\362\275\000\244W9\026\234\276=g\311T\276h\207l\275KS.>g\316/\276\250\352\000\276\270\221-\276\246D\374\275b\202\211=\201w[\276fJ\364\275?\246]\276\230\003\267\275\023\\]\276&\351\266=l\3379>hB\260\274F]\212\275\265\352\\\276^:\276\275rx\017\276\234?D=\220\211e\274s,\031>(o\010\276A\266\030>>@\025\276*\212\260=\360g!\276\342\242Z\276Zn\277=x\320\225\274\016\366\203\275g\254\320=772>\271\016_\276\235\221\002>TkM\275S\240B>\202\242\316=\242w\004\276\250\215\231<\264\036B\275\231\2007>\253HP\276\264\212]=4l\251\275f\032\022\276\305\372\315\275<D,?\024\'4?\335\026\255>\321\245\033?\360\354\017\277\027\352e\277\\A\202\276dh]\276R2\202\274\360h!\276j\304\036?\300i\000\2759\243\352=9wm\276\264?\342\276\347R\205=/F:\276h\031\">\355zR?\273V\217\276\330\266\204\276\315\374\237\275\240\203\226\275\251\004\367\275,Bu\2777M\255\274\357\203\305\276\241\350\310\274\032\331\313>\300\335\266\273\357\345f?\000\377\307>&`\357\275\327\222f\276\002\017\034?\214(\264>.Y`>4:i\277\357\013\036\276\367~\201\276C\024\373\276c\231g\276\355+\336\273RL1\276\261L\214<S\010\233\273HCN\277\334;\251\275\003\207\'>\226;%?\013\346\342;\242\260\366=\335T\275=lc\000\276\267\003\227>\366\034F\275\307wz\275\262T\357>\201Aw\276\310\272\374=\010;\300\276\177J\205;\035\261\232\275\177\006\021>\327\315\352>\366\323\216>2\373[=\033\320\032?A\277\247\276\345\253\236\275\247\215\204>`\267\305;\240p\035?\000!\200\276\034L\037=\027\033L\276g\325\330\276oP\261\276\002\374\352\277\363.\030\275/\005>\276\275^\217?\024\3713\276\302\221\226>V\021\t>\310QH\275\354\014\241\275\021O\201\276\245\3703\277,\"\341\275\265\264\363\273\000\257\021\275\361\364e\277G\261#\276\207\321\361>^\016\233\276\216\342\330=\322\316\212=]\235\007\276\345d\274\276+V \277\201\377\263\277\224\252z\276=q\017\276\364^#\277F\207\027\276\317\314\006>\0166\203\276]s\t?\300Q\364>\013\373;\277\3324P\274\322\233\340>B\253\020?{Zm\275\305\037\360\275\323\035\326\276\003\335\'\276En\251\275\271B\271\274\324A\213\276@\331G\275[\316==\204\336\351=-\223\026\277\222\336M\277;\223\014\275\236\216.=\204^$>\332T\032\276(Z\311<R\374\341=\333kS>98Y>\003\234\211\274\225@\035>\235\220<\276y\330\242\275\227=\344\275\"^|\275\005\355\370<\337\340\267\274\2505\252\275\rg\307\275\342\212\321\275N\016\204=\336\357N>:\262\237<\307W\331\275\2228\343\275\271\240\000>x\260\376\274\365\016\003\276;\215\033>\343\334>>;\247\">^\224Z\275\261\177\010\276\013\250P\274\301\002\354\275s\254>>\200]!;\220\022\347\275\251\236\266=\333\225r\275}U\032\276\230\3066\276\000\313\030\276NQ\317\275j\340\302=\270\242\355\2753\"!>\242\235\256\275\213\215\272\275\337\246\267=\262S\224\275uN\224<hUJ>l)m=\320\352\312\274x~\223\273\024~.=J\336*\274xV\325<\241\311\010>\276G\316=\274\023K\276\234\367S\276\2214\246\275\024\230H>\233\004\335<w\210\030>\213\264H\274\322\352\307\276\243;4\276\036\253\335:\027\2731?\212\014\005\277\177\206\354\276\332\204\215>\375\333\261<\226\340W?I\016\317?}\212\355\275mW}\277x\362\r\300D\235\335\276\276a\352\276\014\005:=%\203?>\316f.\277\r\300u>\360\341\235<F$\305=\354\267O\276.\374\320=\370~\333><\204\027=\276\207\206\276\'\351R>I\365y>D\n\230=\001\230\024=\222\337\037\276\244\251\375\275\377\2538\276\014p\237>R\020x>3\035\327=\206\374\r\276\0004\302\275\364|\325\275\351\037B\276b\r\347\276Rw\275?\352\241\345=!|\020\276\331\224\001?tm8>vn\313=\347\203\224<\237\372\355\273\277`\270>\200\365D<o\250j\277\356\363\361=\247\211\225=3\207V>\177\314+\275\202\362\t\277\204\022\021=`\311\251;\3032o\277\021\n5?a\274\242<KG\t>\266\023]\276;\316\232<:\0072\276\255g\313\275\237K4\276.?\'\2766\037\363\275rMB\276\263\240\242<\362\3340\276\000\016\323;\003\225Y>dV9>\245\307e\276nY\344=\324\230L>@oB\275b\014\034\276\337\000A\275\331\227\370=PO{<:q\362=O{\030\276\311z\024>\314S\026=\004\222\230\275\251\347\375=\274N/\275\362_\302=\005\013/>\224T\t=\201QH>}u/\276N\227\357=`\275\354\273\201+&>irG>\247\354G>\346\267\034\276PD\010\275\210\n\265\274\037T\177=\313\264\343\275y1!\276\326\331\316\274\301\020\345=\307\302\r>\020\376\255\274\351P\030>\nL\335\275J\210Q\276J*\227\275|x[=^\237\267\275\327\346\010>!)\'\276T\315+\276/GE;\340\362\210<\214\236_=\244\247v=\242J\276=G\316M=J\314\253=\316P\303\276\364\331\212\277\033x(>\003\332\263=\034\362\304=\260\307\246\277A4S>\003ks>\034Y-=Z\022\311\275\\\241\331\275\330\223\355\276\023\252\372\276\014\262\271=\017\224,>\330\266\314\277\3400\333\275|\376\220\277\210\316{\275\334\302\253\276\324IA\276z\363N\275K7,\276\314\351E\274\036\313\347=\344;\313=\313\275\246>T\244g\276\216\244C\277\361(\350;\253\350\260\274l\332\013\277U\347J\276&\r\037\276\232\324\255>\367Q\213\277\020\257\177\277U\274\326=\334\343|\272\266\372\004\276*\"y>E\006Q\276c\034B?J\n\276\275\024\366\244\277\210E\353>\004\007\210>\371ZF\275[\317M\276D/\026>\031/\"?\365\340\021\276ycG\276\275\366\035=\344U\236\275\334\355\321=.p\251=+\033?\277:\254\033>\037P\205\275\002\330\255\2762\014\n\2762\354G>\222\334\366=\255\022\364=v\2626\276\366\013\327\276\300\216\377<h\372\350\276\227\313\201\277\322\376;>\026\330[\277\333\365\237\275\371\315\221>\207B\212\276U\360\243>\306\253\257\276\263Z\356=\013\300,>\027\247}?\364\002c\276\251`\030>2\205s>,\034?\276;\007o=DZB\275\343\211\325=X\213\003>`\230\275>u,\367<\256s\325\276!\344l\276i\026\356\276|\205\312\271\300KJ\277\243~\222>\303a\020=\251\323M\275,\271?>\334\223\320=\261\374p>\226X\200>\252i\303\275\247\272O\275\017\321\033>vb\217>\366\010\027>\\r\351=\220\235\225\275\3250g\277B4\013=\337\336\274\275\273\2439\276d\262\273\273BA\323\276\377@\214\276\361\340\361>Gh\312=\0226\231>t\'\232\275\317\343Y\276F\3254\277Y\320\321\275\360e\336\275\366\265\t\276+\243?>\301\006\237\274\333\267\010\276#l\321=\314I\021\276$P\325\276M\241\033\276L\246\277\276\314{\223\276\253g\251\277\303\252\232\277l\246(>\2673\037?&!)?\275Z\343\2760\314\362\275\364#\207;\342\276\252\275\242ks\277$\017_\276\320\363\035?\000\220H\276\177u[?\213o\002\275~,\t\275,U\264\275kTl\273:\006G>\277\300R\276\3401\267>\270\000\261=8\336\207\276\0331<>\241\236P>n\346I\277\262\311\342\275\307\3124\275\363\274&?\203\204\207?D\016\023?8[o\276\'6\271=\344~\017=\243\004\313\275\331\264`<\216_\255>\027\037\252<:\004\347\276\225\031\033=\210Z\350\274#$,>\356%=\276^c\331>\223\322\230>\224ss>\265\215\344\276\272uq=\266\006\201\274\"&#\276O\r(\276\334\364Q\277A\266\304=\300)H=\037\256\357\276;\351-?\344\336\255\2765h\217=B\032\360<=\254\336\276J\005\242\276r\337\233\276\320\003/>+\367\302\276d\"m?3<\003?p\313\313\276\010v_=\251f\360\276\362\222\306>\251\370>?p3@\276!n\031?\2360\210\276J\217\031\276\010w\032?\247\321\036\277CSJ=\263\260\272=\020\356\204\274,\374h\275\265\002G\2736\326\274>2.\"\276\\6\030\276\305\354\266<\344\233=\276\3128\243<\324\020\244>\031\352\371>]\032@=\261n\312\276v\302\373\276\000\362\233>0\312\305\272\314\244\263>\344\2047\276X\201\032=\364\323#\276RU\314>\014\275F\276F\223\325\275\2107\"?\036\307\350\276\3407\263\275\335]\203\275/p\'\277\214k\210<#\360\226?\302\301E\275\210\203\312\276\306\351I\276\3200\032\277\364\010k\276dn1\274\2771\033\277\360\2678\276\230\366\334=\264\307\271>\343\352\360=\272\203\327\276\205j\264=\254\250\274>\255\n{\276\003\264\305\277}r\230>#\010\n\277\310\250\210>\353G\"?\216\316\362\276u\225U\276\271k\035>g0.>\251\370y\276\004\023q\276\216.]=\014\010\201=\r]\210\276\344\254\364=w\376*>\333l\251?\263\260\304<\364\267\343\275\266M\035\276\367\244\267\275\212\014\006>\035\036\r\276n\317\221\2751l-\3000\247a\275\235\201\300>\242{\313=\223\241\017\275l\361\375\276\354\034:\276d\245R\276\254w\335>\256\321C?\344\261\202\275W\253\360\275\274\353\313=J\370\253\275>p\324;\022\374\362\276\257\024^>.\372*\276\304\236\325\276\267\022\233\277+\310\316\2769\205\033\275J\276\002?\372\276\347\276\367C\224\277\242\375\255\275\220I\241?v/#\276\210\213`?x~\021\276\367\237\214<\273\334!\300\305/\020\276tQ\370;x5\237>\357\225\007\277\207\341)>\261\t6>!\\\266>\221\314\254>\347\366\n>\260\225\031?\376O*\277\ns\365\276\3058\037\275.l\275\276kB\306>\307\017\313\277Ru\211\276\356\302\022\276fZR>\n<\025\276\233\220\211\277\271?\235>\373\317[\276\226#L\277\271\350\247=\347\357\205>R\331\256\275|5\352\275%k\"\276\364\324\204\275\310\214h\277(*\206\275\204\024\"\276,f\320\275\265S\372\276\354\345^\276\210\377\361\275{\265\n\277\333\t\360=C*q=*\234\005\277\316\315\336\276\276\007\215\277\303\037a\277\305\361r\276\373]~\276\213\023\026\2773)\024\276\243\264d\276\"\0361\276\343\341\003\276a\266\025\275\003\031\271\276\231\233\203\276*\255\342>\301&8?_\323^\277\301\333\323;\234\364\226\276b\253\306=\3448}\277\013\223c<\217\322%=\000%\026\274fn^\276\022|\210\276\255s\014\277\222\007\263\277\274\350\370>V)5\276\tS\356\274\216r\'>\201\273A>\222&f=\006\246\261=2C/>\343\020\223\275\361\270\';\252\237\010>W?G>\212\021\243\275_\314\367\275o\264\213\275I\027\t\276\205\027\023>#o\305\275\334\274\233\275\303\311\234\275^\2209<\362\235\224\275a\035\024\276\271\254\034>\307\037\306\275\336\363\016\276\326\262\336=\336\230\004\276Y\372\302\273\002o\253=\326\017\355=&S\213=\376R8>\272\177@\276\362$\346=\rb\300\275\214\271\255\275\035\361V\276\303\241$>\242\226\006\276\"I\331=\322\"\305=9\330J\276\266t\241=!\224S=2\312\226=E1\000\276\344\223\214=\023t >\347\027\367\275\351\034\025\276\234.U\276\215\346e=@\360 \273\210\277\306\275*\234\334=\030\323\271<\221_7>=!6\276[\242l\276b\301\261=\303\352@>\014\377\356\275>\005\330=\021\330\222\273\222\276\261\275z\350\227\276\'?\007\2768]\272\276\375\366\242\276\252\277j>\375\374s>\256_\007\277~\031l>\366\226\201\276\tA\257\274\327[\245=\373Z\006\277K\357\006\277\361I^\276\344\025\273\275\203\002\312\277N\215\271\275+[\244>AT\335\275\300W\344>\013e)=\320X#=\212Q\322\275\253z|\276\034t\020>2\211I\276\000)\246>\316d\346\275\315\262D\277\005\200\221\275n0\036\277\215\306\271\275\023\236\342=\330\3605\276O|L?\202\251\237>\321_\231\276=w\225>\306&\014\276!\214\023\274\000:\253\276\245\371\212=\342EM?\314\221\340=\001M\341=\255\234\345>\213\315\201\276\354\245{\275C?\277<\271\352&>\375$n?\377\231\332\275\312a\216\277|\353\020\276\274\224L>\361s;\276\037\365\013=\276S\255?\221CU\275&\376\034\276\216\310\367>#DC?R\362\020\277\274\014s\276#\201s\276O\327D\276\221\251|<;\r\262\276\350\225\022=|r\\\276\360x\365<\334\324\212\276\0046\225\276N\023\037>7\333j>\250\005@?]\207\266\276\0066\014?\022\027\013?\326\3273\276B\016\022>\343\346\246\276\216\246\375\276\300\262Z\277\277\324#>;>h\275\210\242\266=#\226\202=\343y\306>\364\010B\276\370\312\212\276\202}U\274\211+v\276E\020\306\273\007\220\220\276O_O>/hd=F\"H=\003\365\030?\234\327(=\226\027y?\330+\r?\315\207\t\276\335\213\005>\207\360=?7&\027?\360\246\200\275\355\322\320\275\366\260\331\276l\202P\275\350\354\016?>\306,\276\261\337\240\276\"\006\353\275M\242\250\276W\304q\275\244e\020>s\"L\276\367K\253>48\345=8\367\216<\"\344H>\333\375\307\275\004c\344=\236\207i>\346\263\367>\224e\271>\211\236\r>\271\305\305\275gd\341\275%\341\207\275m}\310\275\240\010\243\275\342\213\374\275\025\200&>\341)\244=\274\017\274\2757\316\373=2\274N>U~,>-\354_\276Y\010v\276K\310\200\275.p?>02\016\275\374\353>=\001\375\025>K\324\360\275\331\202\\>\342\205\211=\3108.\276\261+=>\003x\205>\215\231\037>\337\337*>\250\226\'\276HZ\376=\314\375M\275\247\315I>\225\225;\276\264\026v=\002\315\n\276*\036\207\273!\344\300\275\323\332\034>~\t5>#SO\2766\252\254=\210\276\207\275\253\244\005\276\365L\324\275:4F\276py\270\274X(\315=+m\t>\241\257H>_\343!\276\257\001\207=lz(>\005\233h\275&\023N>.\233\226=c\322\262\275\364UM\275\025\264,>\'\312\242=\036\272\347\275\334\311:\275/!\262\275M\307\250\275\346\356U=@\320%<\222N\035=J2\225\276\245\021U>\227\240\237>>\325\275\275\245\252\313\276t\307f>\306\203\242\276\260\236\355\276\207\006z\277\225>\033\276\224\251\004\277\231\037\260\276K\027\201\274T\265h\277\346\005\342>\226T\237<\200\243P\276Y,\230=\275DC\276\003V\004=\215\227\214\275G[\233\275\222\211,\274\255\013\225\276^kS\276\242\345\033?\270L;\276\004\353\213<\213/]\276;\232$\274\232*)\276\000n\355=*k\251\276\316\211\356<;\016\273=\337\224\227\276\002/\002\277\026\216\277\275\321\372\034>?\305\337=>N\007?8J\024\277bG\222<\020\362\272\276y\021\216\276\177c!\276\233\265\222\276\346@\237>](7>x\t=\276\025\321\013\276Hs\221>~\232\200\276QT/\277\245\214w\276\276y\330;\003y2\277\316yl\275\356\274]=\215\345\006=\337\361P\277\360R\371<\357\321\233\275\356KA\274\234\207\241\276\033\022P>o\024\325\274\341\253\211\276\353&w>;i\215>\343\237\003\274]\361\022>\354j\310>U\213,\277\361\377-?\026z\021\276Q\344\226\277\243o\\>|\314\024=\2148\277=\372-\025?\023\220\310?\350g[?\220[\336\275{E&\276\242r\316=\275\305\230;\360\311\023\276\276\304\275=\025n\200=\005\275\261\275\030h&\276\\9\217<9*\337\276\273\250\246>X\026\023\276\302\025c\276\3418\233\275\016\344\331\276E\212\215\276\r\333,>D\272\020>\372\221\233\275\370\370\201\276#\336\272>5\004!\277i\024w\276\257\376\273<Tu\375<p\315O\276\257\334\t\276\372J\212\276\204\377\244>\014\3255\277\334\373\n\276\252\327/?&\375\036\276\177\311\234\276\376\035\007\275\364\376`\2764\243\262\277\360\3154;\357\027\001\276\364q/?\267?\201=\353\244$\277P\344\033\276/I\247\274Bm\030\276?\357\214\276\226\217\007\276hy\222:E\177\003>\'\224\222>1\321\023>\211 ,\275\022\232 =\360\335[>\300\333>>@2\350\272\347\360\207\275\343\331\313\275\223\216\241\276\213B\203\276\371\317\221=c$\243=\321\033p\276k\250\346=\226\344\004\276e\320\033=\245/\026>\234\301\034>/\336\027\2768LC=s\334\307=\232B\236\275\270:<\276G\017\223\274G\3561\276\017\0302\276\327\340\356\275\017\301\345=\205\320i\276\222\2508>\"\034V\274Y\363\302\273a\006\027\2762[<>\347\241\373\275\\\257\245\275\203\227\024>-z\247\276\226\021\223\2743\311\215\274\233A%\275\204\276;\276Ts\037\274\353\2747=0\326\363\275\005A:=hZ-\274\242\031\024>\200\266Z\276\322PO\276\265\376\336\275!\000j\276vg\'\2760zd>\224T=>\225\315\343\273=\003!\276\002\260\222\276\256\273\337=}\033\334\276\302=\213\276\034Z)=\036\333S\276\347\362\335=u\206\210\276\'\203\257\276\000\014\270>\300\250\203\275\364\315\213>A\235\262\276\t\222\354>Q\325\020?\3722\037\275+V\364\275\036/\265\276\322\345B\277\250v\n\277\010\211[\276{\261\236\2760\343\204\2764\354\023\276W\267\377>C@\035\275Jf\214\276\330\320k\276\276G\366<\325M\215=@\335\300\276/\232q\276\010\374m\276j\273\037\276\203\026\236=\t/&\275\371\004P?\333^7?\025~F=x\204\025\276$\252\201>\'k\275>.\336#>\272v\362=\'\013\315\276z\230\224\276\320\211\014?\260\307F\276TZ\277\276\256r\333\276\332\000\245\276\336\333\r\275\305\022%9\377\007\317=\340sG=<!C\275\340\222\230\271\267\'\300=Qn\232=\320jU\276~\321\216>\263\376\240>\231\362*\276\364\351\235\275\275\212L=^&\373=\230Z\311\274$);\276\032\032T\276\212\026\341=\310\214[\275z)\227\275@\235\300=H\341p\275\305\0167>\241\203H>\341\223\r\276\203O\034>Y\375\010>\325\324\325=\206j\262=Z\266\235=\023\253\025>\230\023\007\276I\214\021>\"y\240=[\305 \276\250\361\010\276E\326:\276\270\\\301\274\340$\237\274x9\030\275Ow@\276\350\313H\275H,\002\275R/(\276~\347\235\275\357W\">&\366\035\276<M\036=\301\200\305\275\230\023\344\275\374K\001\275{\203V\276\272\205\361=\214R\307=\227\245X>\372X\356=\'\\\024>\0347Y\276\332{\317=\220\236:\275?\207Q>\357\'\336\275\331\374#>\300\345\375\273\2276]>\261Z\017\276\250\035\370\275\374\3572\275\370e{\275\365N@>\'\354\026>\002\006\264=\240U9\274Nf\037\276\274l\266=\240\300\264\273\017\263\265\276a\202-\277\033\256\034\276\00737\276\001\261\354>G%\t\276\234\227\201?\347h\273>o@K\276=\271^>\206*\210>h\017m>\\\361\005\277\215(\021\276\275N&\277\013\364\225\277\007\014\321<n\021\356>,\252p>\302\316\342=b\373/\276\341a\364=\n\263-\276\203\017\004\276d\362#?\232(j=h\r\201\2751\222\340\275\207\254\026\277O\213\243\27529\346>\313t\320\277@T\001\276\321\271\353=F\371\026>\202\352\206?J\275\212>N\031\211>g\034\003\276\247\014\207\276.\007\227>\017\037\240>\362@.?&g\220\276\221\336<\277V,\306\274\\\347\220>(\365$\276!\026q\2765&\010\276\337\324P=\225\271!\276\211\244+\277\261S]\276S\376\365>`\353<\276\360/\016>\326\206\030>l\254\227\275b\\\335=\035\304;>\356\312\r>\270\315\347\276\243\275\200\276H\320\210\276y^\250>)<\212>\020p\233\276\322G{\276\030]\331\275\362g\324\276\2203\247\276\274\277;>\351v\247>\2542\226\276\216~\343>\355\323\304\276G\331\277>\022\305I?\363\205\006\276e\331\353\274,\034\210\277\304\006x\276F\274\365\276z\213\314=_\203\311=\226\216\316=\260V8>\273\304+?\033\346y\275\271\302\310>\303/\316\275\271\242\030?*\262r\276\252\260\221<\rF\024=\204\033J=\377\352\010\276\370*\273>\034\210d\276\025\036\004?\270\373\024?\375\365\315\275y\337\205=\'\264\315>\002\361\261>\373\016W\276\322\2242\276\363i\031\277\243Y\313=\216p%?\241\263\372=\225\263\342\276\225\245\215\275\310d\367\276\230<\336\275\237YT?(jd\276;\227\222>\270\231\'\275b\003V\276E\241\364\276\203\354\007\276>\320\225\275x \"\275\352\354\244>\310P\034>\327i\037\2750|R>f\002\210\276\335\312\266\273\020\244m=1\344\267=@\211\264\275{\255\036\276\227D1>\324\347o>\014\361\346\275(\371\033\276\220\301\035\2769\251 >\304\014\001<s\365\271\275\254\032\334=\177\325\">\317ss\274\300v\245==\374\260>0/\n\275\272\266[\276`\232\362\274\240\023C\275X\232\034>\177\3749>)U\331\275\232!\236=\366\307l=\212\340\275=\317\233~\275\024\226\223=P5\037\275D\306\005=\007\246\300=\353\177\3748Twk\2768\200\311=\006\320\363=Ny\r\276*\032d\275fV\003>\236\217\244\275X*\224\275\n\231@>U+\"\274\304\236_;|\254o\275\030\273f=\tJ\256\275D\276\024\275S\350\034>\277\354h\276\\Z.\2751\350\362\275\201\037\024>\0104\240\274\316:\366<3\354\276\275\200\236r;\\\006N\276\317TC\276\307\232w\273\220\326\005=\364\366\277=\004v\367\275\213\276\307\276\225\214\034<\257\214-\277\240\353\373\276\270\256\333>\n\300y\277\347\327\273\276\"\211[?\345-f>m\251\266\275\336\337\325\2758\362\200=\225\177\352\275\3305\257\276\374\263\022<\350\245\021?\374\302w\300WW\225\276x8`\276f\016\332\274\347\267\370\275\234l9>\034q<\274\001V\211=\221\316\270>\307\200\027\276ny\214\277\374\326\271\274\254\337\333>\033(\364\275\361\373\246\275B\033~\276u\305\201>\334\254)=k\242\n>#\221J\276\302Qo\2765s5\276TwE\276\303\350\001\274\213\003\307\275\353\320(\276cl\235\275\214\301\212>\016\267H\2765\004\204<\200\2424??\324\327>\275\024\233\276j#\177\276\352\345v\276\2023\313\275\372Q\017>d\313w\275h3k<Oh\222>DKR=\203\303\020\275\370\231\035\277\037\n\001>=\262\216>-e3=I\337D>\323;Y> \202\033\276{\340\357\275\215]I\274%\300O>X;\246\275\014\311\240<\311\0302\272$\252\305\275\270\3750\2760O\213\274\0322W>F<\213=#tN\276d\030$\276\260\036_\274\203 E\276=\3277>a\261\035>\324\363\017>\304\010 \276\226\322\000\274\321\036\002>\246\013\270=u\3326\276\t\227\r=\2704-\275C\223<>\022[\267=\255-\014>\312~0>e\247A>!BR=\t\213w\275\007\245\220=O\370\340=\237\357\'>~\036\017\276`Y \276\365m\342\2759\337\235=\337\001:\276\034\355\315=n2\213=\342\033A\276~\3645>c<\032>\305\017\n>\370\317i\275\317\363Y<\257\241\207=\242\264\264\275\220\276\324;\256\3717\276P\274\215<\232\213\205=\234\\\225\275\353^X\276\260\315\030\276\215`\032>\371\234K\276\360\314\037\276\212\261\200\275\n\300&\277\347<\305\277\241\301\253\276\255\3731\276\231x\224\273hO\344\276\030\017\330=6\210\354>\005\243+>pb[>\271\217\231\277\377J\335\276p\266\267>\333\300\013\275m\323\205\276}\3237>\361\017,=\014\377\252\276\204;\301>-\220\002\274,gB\276\027\313\004>5i?>\232WL=<\303\364\275\373\025o=T\332J\276\211\005\207\276\007m\335\277\324\024)\276\022\324j\275\n\ro\276~\255X\276kb\205=\350\370^\300X\300\204>\311\232\274=`\246\325>\323\t`\275-\233k\276\276.\307\276\305\371\223>\tBm\277\231N\245=\2048\037?Z\316\001\300R0k<\276\360\'=A\'C<\341N\224=\003\375\371\276\340\340\331=oY\027\300\357T\363\275\362\334\225\277W\227>>Tc\330=\320\271\223\277\036\215{\275D\354\204\276n\032\311>\325^\021\276\"k\226=\314.\323<^\205:\276q\232\035?\t\212\250=e\207o=\t\337z\275\305\000\211\2761zE?\247\206\201\276P=@>\362\363!?\036S\206\276*\335\244\276\277\262\274?@\031u\277T\007\"\276\036\365T\276B\350\017\276\271Y\262\275K\177Z\300\233xU>?On\276\001l*\276|\374Y\276\232f@>V\002\320\276\310\357\313\275\335\246A\276;\265d\276\222o\252\277\032\351:>\003\226\310\276.>\216\276xZL\276c\204\265<\0248{>0T4\276\2626\261>1\n\234>k\242&>\252\231v\2757\357D=\027\306\310\275\333\275\005\277\236\342\017>6\331`?s\347\363=\263i\013\276\203\026\202=\272\210\221\276\330\216\026?F3\205\276U\2123>l\221\337\276\002\317\016>\316=`\276b&\037\275*j\373=\370j\020?V\207\257\2755P4\275\035\272\032?\221\217i>/\234G=\021\224E\276(\301\372\274\324W;=8\323\355\274\000\246\202\274\007\246\027=\002\351\240=\233\343\022>0\233\302<2\006\240=c\327\311=3\226\276\274\223\336(\276j\260\230=d\347\007>\233m\346=\255(W\276\000\347x:\004\3669=J\275\315=\357\274\000\275^\363\262=jWG\276,>\216\275Fh\356=\237e$\276\034\366*\275\373\330\323\2752]\247\275\300\237{\273l\243\033\276{\240\010\276\321-W\2768\275F\276\007\t\031>S\272\247=\374T\241=_\014\244\275\016\035\235=\034\370\203\275\370R\r\275\267\222\270\275\361q5\275eI\\\276\013G\031\276\303\232J>\024c\224\275@\305:\276\316\207\240=\302=\253\2752\236\t\276\272\365\203\275{\277[\276[r\363=@\371\336\275\032h\005\2761\000\017>@X\020\276\377^>\276{\235B\276\227\226\033>\361I5>`\"\250\273\332\031\202=\316\234\370=\325\261\352\275\366;\306\275\364 0>\000\237)\276\331s\312=\313\312\n\275@/\313=K\307d\275\374\221\352\275\257\242\233==\255\244\275\257K\305\275\253\217\361\275\331*O\276\347\363Q\276\343\216\037>\224\320\006=AO<\276%\362.>\332\010G=\204\245P=\225Z\347\275\010\000\367\275>\243\275=U\211\362<\306\000\204\275\377\357Y>\254\305\007\276\322O\017\276H\2256\275\371\250\314<m\315\017>\222\027\246=QgZ\276\006\252c\276t\335*>\030\245\031\276\2120s\275rC\314=\214\364\202\275\213\346\346=\310:\324\275\024\226T<\371D\337\275\322Y\370=\364\306\t\276\201\233\256\275\022}\023\276C%\254=c\273E<\2540T\276\021\2621>+\2566\276*(\304=3\365\312=\253\354Q>\020\222*\274\022Ll\2742n9\276\356\373\232=\366\305\004\276\247\312\n>\301\357(>\3745\022=]bR\276\026\203\200\275\226\252\234\277V\321G> >p>\311\002\237>\363\224\311\276\275\364\025\277-/\342>\r\017\271\276\364\367\244?A\346\r\277K\306\210\277&\355*>xT\220\274\346A\202>N\314\243\275\345\013\376=\245\240\260\277\267d2>\207L\331\275\231\241\223=+c\307=\223\241.=\360\024\022\275\34566\276=\r\243?\0172{\274\037L\030>\346\335\275=\262s/>jd\223\276\tEC\276\007\024u=\327\221V\277\210\270\006>L\367\034>B=\361=\006\267\206\274G\344+\276\342|\301>s\373\275=eh\230?\231\271\r\276\320\200\220\277\014c\332\275\202\315\277><O\261=f\347m;\207\374\223\273\220!\230?6\016\025\276L\200\304\276\274\376\371\275\\\276U>\360\216{\274\256\225A\276\265n\227?\221#\225\276A\346\210\276\321+I\277\033\307\022\276_\213!?VV\217\276\212\324\370\276\371KK?\014tJ>\030\377e\276\20399\277\364\365\362\2757\n[?\3237\262\276\270\370\005\275\342\200#?0\241\361\275(\257-\275\372\205\032>H+\025>:\030\004\276\310W\027\277XE9\275\362\3471?\270!\\\277,\233\004>p\221\000\276\0375d\275\001\030]\276ql:\276\237\\\250=I\361w<\r\026\375>\364\211\361\274\303\n\243\276\304\377\003=;\344\254\275\221\014\236?*\252?\276\330\365\326=\265\245\203\275\373\213\213\276\225u\320\274\265\232T>\307\352\330<\253i\261<f-\307=J^\325\275\016\355\226\277\263T\310\275Z\3724?\317\303\014\276\033R\347;\223N\r>J1&9\026\225\323>\353\210\013\277\001Dc<\323\224\275\277I\3273\275\230\206L\275/\2044<\030\354\341<\304\025y?TEE\274e\361H\276\222\352^>\2478\261\275\264$\272>\222aA\276,\367m\276\023\344\354\273\365\274\r\277\006\037K>\177\026\265\276\253!5\277\267\214K\276\021\004b>=q\005?\265RV\277\356\244\031\276m\277|\276\neF\275\354n\206\276\324\301\274\277\002z\204\275\372\362\013\276\227\356\200\276\240*\r=z\371\231\275\243\220\221\276\211=\034\275\264\001\245=\266\3148>\231\010\241\276I\330&\276;l\036\275\375\035{\276\331\276\331\277\202K\327\275I7f\276J\357\014\277\246\212\376\274\006yp\276\323\236\205\277\245?\207\277O\023\177\277H\371 \277J\032\341\274\261/\034\276\331!\372\276\227\305%\276W%#\276\307\265\337=W\372\010>\013\372s>\264\355\307\275\\\300\025\276\245\006\202=\312\254\231\2754_\204\274\010\335-\2763\261\005\277\0348\245;QS\236\277\275+\323=\313gj\276\311\312\215>p\234\022\275\t\371\335=\017\035V\277&\000,\277we\243<\023\345I\275?%\034?g\327\376>\234K+\277\331\370\267=\263\'m\277\314l\273\277+\306\373\276\370\243\212\276\036\022\\\276\214jw?\351\275\036?*\305k\276c\2365\277\241\315\363\275\376\nO\276\203\267\255?\317\300r=I\245\270>OM\257\276g\341\254\276\3352\036\275\332\030\033\276\262\000\230\275q{\206=\270\315\342\276\251\275F\275\222c\362\275\215L\210\275\261\236\235>1\300=\276\263\264\310>\270\375\t>\312\313\177:h_/\276\026\225\260?\250u\276>Z\214\013?0\344\016\276\313R\022\274\272\261\213=\324,\366\275\347f\264\276\245\363\022?V\0015=\207Z_\277\204\275J?\231\034\365\276)\375\367\275\227Qj>b\277\307>\230\201\'\276K\262\352\275\254_\245>{\376\203\2769\014D?F\214\000\276=\013\207=\014}\222>g=\227\276\271\2160\276\305\010<>\310\002\037?\321\254\314>c\024k\275"
      }
    }
  }
}
node {
  name: "dense_26/kernel/read"
  op: "Identity"
  input: "dense_26/kernel"
  attr {
    key: "T"
    value {
      type: DT_FLOAT
    }
  }
  attr {
    key: "_class"
    value {
      list {
        s: "loc:@dense_26/kernel"
      }
    }
  }
}
node {
  name: "dense_26/bias"
  op: "Const"
  attr {
    key: "dtype"
    value {
      type: DT_FLOAT
    }
  }
  attr {
    key: "value"
    value {
      tensor {
        dtype: DT_FLOAT
        tensor_shape {
          dim {
            size: 64
          }
        }
        tensor_content: "\203\353\005>\007w\253=\202W\274>\330*\225>\360Ek\276\212B\271>\213\217\000\277E,\264>3\356{>\014\203\271\276Y\250\347=\321\225V>P1\306>\254]v\274\001\033\205\276\330\236\014\277\253\347\200\275\214\260Q\276F!g\276\317\272\255\275G\273\264\275\320\034Q\27579\372\274\252\264?\275T\202\230\276\036\370\204\275\253\262\222>\022\371>\275s~\213\276\275\221T\275\276#\236>\037h\210\276\364\222k\275j!H\275\"n\324\276\200\363\330\276\270\277\037>\371E\324\276\204W\177\275 \022\254\275\001\211U<b\240\240=Y\273\235=\r\367\275\275s\376\240\275\2068\273>\212\340\332\275wu}\275C\324\206>\236 \261;\024\356\251:\035\'\302\275j\353J\276\022\322\227\275\317\222\016\276\212\007\002\275o2\246\275\231H\037>\000e\332\275\007Z\203\275*R\326\274\243\252\303\276\311\360\201>\007\031\226\275"
      }
    }
  }
}
node {
  name: "dense_26/bias/read"
  op: "Identity"
  input: "dense_26/bias"
  attr {
    key: "T"
    value {
      type: DT_FLOAT
    }
  }
  attr {
    key: "_class"
    value {
      list {
        s: "loc:@dense_26/bias"
      }
    }
  }
}
node {
  name: "dense_26/MatMul"
  op: "MatMul"
  input: "dense_25/Relu"
  input: "dense_26/kernel/read"
  attr {
    key: "T"
    value {
      type: DT_FLOAT
    }
  }
  attr {
    key: "transpose_a"
    value {
      b: false
    }
  }
  attr {
    key: "transpose_b"
    value {
      b: false
    }
  }
}
node {
  name: "dense_26/BiasAdd"
  op: "BiasAdd"
  input: "dense_26/MatMul"
  input: "dense_26/bias/read"
  attr {
    key: "T"
    value {
      type: DT_FLOAT
    }
  }
  attr {
    key: "data_format"
    value {
      s: "NHWC"
    }
  }
}
node {
  name: "dense_26/Relu"
  op: "Relu"
  input: "dense_26/BiasAdd"
  attr {
    key: "T"
    value {
      type: DT_FLOAT
    }
  }
}
node {
  name: "dense_27/kernel"
  op: "Const"
  attr {
    key: "dtype"
    value {
      type: DT_FLOAT
    }
  }
  attr {
    key: "value"
    value {
      tensor {
        dtype: DT_FLOAT
        tensor_shape {
          dim {
            size: 64
          }
          dim {
            size: 10
          }
        }
        tensor_content: "pG\362\274\335\275p\300n\3113\276\214\376\024?.Z\262>,\3771\276)\004#>\361\024j\300\2079>\276@\241\257>\212\361\256\276\233\370\037?|%\221=\272\216&?\242[\363=\240\352\260>{\256\374\276n\271\246\277x\326\233\276L\014j\275\016\\\233\276~\206\236\276\220\364\252>E\231\006>\223q\240>\315\035\222\276\356:C>0+\221>\305\337\256\275@@\213>\346\251\356<M\010\217\300\257\356\330\275\357C\017>\264\361\335>\356\005d\277\236\261\263>\246\032\236\2776b&\276\305\005I>\277\177\220\276\210\'\205\277\260\036\t\2768\204\243\276\257Q\330\276\357\010q?\233JJ\275\247\005.>.\234,>z\204\314>\2535/;\010\274\267\276G\376 =/h2?\242$t>\310\321\267\276>\372\213\273\332Q\006\277@\354\003\276i\353\205>\377\300\274\276[\025C\277[\253\003?\322^T\274e\003\'\276\220\204\364>\237\211\306\277ZYC>\270\206\254=7\020\313>\331\262\013\275]\330(>w\235\370=\037K\320>\341\341\370>\255\005\365\276?\367L\276&\313\211=\300J\260\276\243\212\007?\336K\330=_->\277A\234p>\212\370\313\276U\345\205=\226\017\373>\323\025\256>7\322L\276\220\263C\276\332\'\013?\0069\307\276\352\237\016\277<\252\025\277\301\2731\277O\353\272\2773\214m?\343t\243\276\331\344\370\275\t\221O\273O6J\277Mg\231>\221\232\245>\237&A<\273x\225\277\341W\246=C\345\">\220\321\316>\217UZ>\016j\n=5\374\034>\277/\257\276O?I=\336\0178=WE\274>\030h0\274O\004<\276\332\027\010\277\251\257\255=qm\254>\361<\306;\204\253\014\277\221\266(\277&\210\245\275c)#?\266b\203\275\221s\"?D\256=\2775\264\240\276\376#5>\030y\276=\307\313\243=\332\350\213\276\345\377B>DK\005\271\206l\255>\274\3300\276\032\024\307=\212\214v\275:\222\257>P\263\004\274\217\230\267?E\372j?\204&\020?0\014\013\277\263\020\262>\221kY\277\301\245J?5\375Q?1\334\333\276+\355!\277\327\003\'>\366i)?\261}U=~-%\276e\3600=m\035\327\276\353\2673>\000\265\347=#\332\222\276U\357r>q\221M\276zv2\276\222\247\006\276\001\371\327\275H\330\224\275\216s\243\275\360\033*\276f\277H\276\362\321,=\310s)>\233\177m\276l\214\363>\3663\213\2767\251\324\277\026I\"\276T\364\210>;\350\004\277j\203\334>\375\375\265\275puC\276\006\214\226=\356r\353\276#>f>\365\347j<\364%\341<3\246\353>\001s\030?\2529p\275\034Al\2756\264\247=UW`>j\305\204\277\022\003\223\275\334\366\205\276\317v_>\342\2130?U\004\010\277F\374\326\276J\n\225\272+\276.>{\020b\276\360\266C=1\232l\275\317w\357<\205\305$<\210\363\255=\031\033\243=\n\303\017\276w\254\013>\355\3503>RQ\340\275a\271\231>\327V\326=\233O\344\275Y\242\240=<\237\265=\223\2042>?%\010>\236\"\016\276\022\373\272\276\331\343\317=\244\354W\276kV5>\354\315\372\275\266\007\350\275nj\252\275\313\376\177\275\326\177\036\2766V\010>\306\375\222\275E\366\003=8\372\276<\177\3757\276\212\260\206>\222:\010\276\306\027\332\275\215\272\256\274\255\243\252=j\271u\276\036\371#\275\210\007\344\277\261]\231;\253\227\227\277`\3520\277`\274\332\277\003\021\300;\264\214\220\277\325\346\306\276\232\361\337\275H\033\210\277\026T\001>/\306\'\2760r\260<\337G\262\274\304\336\212\276D\303\375\275\205\206r>\372\317\326\275N\017\210>\371\303=\276\270\273\030\276\346b\367=\212|\223\276kC\201>\333\023\204>\343\232\177\276\246\212\337=~\264\021\277U\036\002\276\030w\246><\266\363\274\002\344^>\210\207O\276\253ka=_\375\341\275fi\247\275\237nf\276#C[\276\262\367\030>(D\021\275\236\324\264\276\010\316\306=\317\336E\277\002\251\245\277\363\\\260\276F\013\213>\006y\226\276]\356<\277\0173\260\276\207U\001\276\251k\\=1\340m\276\266-a\276^\300A\274>\006\204\276\201\375&\275\363\002d\2746D\227>S\311T\276\007x\264;]i,\276\006\022\236>\024\031\277>`a\244\276\376\264\337>\312\225\315\277\204\002\332\275g\365y=\007\\\027>\031S\216<x:[\276n|\260\276a\006O\276\306E\324\277C\304o;\243\037X\276/\232\343=\332\303\306\277=a\\\2767s\016\276d\001\034>-.\000\2769\210\'\273\242M\327=Xl\240=\266X+\276op\003\275\243\274\341=\335??>\344\364\202\276a\304q\276\251\031\240=\252\3113\274\262M\262<rC\227\274\347\330b>J\007\033=Bh\337\275\372\277\355=y\013#>\201q\231?\256~\315?\010R^=\333\202L\277\230_\206\275\264\363Y\276h\337\203?\272Q\206?\306\010\236\276\375y\020\277P\014\315=\025\246\250\276\337im\277\241\202@\2779\326\315\277\317\326\"\277R\230\303<\".\205\276o\276\023=\3608L\277\347\023\306>\236\276`>\260\225\267>\342x\276=d\266\347>\376r\372=x\014\252>kz>>ln\021?\031\367\217>R\335L\300\342\344\253>\326\232F\300\242}\275\276U\220!\300\346\343r\276\360\365\006\300c\331\000?\327\354\336\276Er\246\277\002\237\202\275\335\313C>\247\261\313<D;\231:\372G\375\275v\272\317\275.Y\375=\222\340q\275\321\201\246\275A\tw\275\243#\353\274\357\236x\276CSQ>\340ve>\270\032\204>`\364\205=\362\205\204\275|\350U\276\014<\347\275]\3276\276\273\310\020?<8\211\2762\275Y\275\310\332\265\275\t1x\275k\232]=\215\005\271>\244Q_>R\271\345>\376\231\017\276\"?@\275P\244\235\275\244n4\276\004\317\370\274\223[\215\276\376\017\371\275\013Q\235;\271;\254\274\223u\221>\363\010\352\275\256\014U\276\211~\207>\377!\031\277N\023\243?\360\201\016\277\206\364\211\275^\"\271=\'\271&\275-\016v\276\251\363n\277\031\366\213>\336*\356<6m\017\275k\016\232\275\363X\205<\240\372\025\275\016|\377\2745(>\275\330f@=\000\330\224\275\213\247\003?\231\351\001@\250\324\273>\240\311\013\277\225\263\211\275\243\350Z\277\306\335\301>\205\333\016@\037\345\320\276\r\363V?U\305\210=X\255\036?\343\253\237>M\273k\276\226D\220>\203/,\277wg \276-\014\202>\276A-<\314?%>\035\200\304\277%\331\300>\024\211>\277\177h\333\276X~#\277\310\276%?6d\206\277\220\230\034>\031\320(>\273\220+\276\027Y\311\275\031\220b\276\305s\037\275\244\030\003=\242e\010\276\346S)\276\310lP\276\356\253L\276\344\023\177\276\210\013\r=\265\202K=F\232\334\276\323\'\010\276\301\337-\275k\274U>2r\231\276\005Mp>3\000\177<\001\253\317\275\316\013\304>;\311y<\351V\217\277\270\344\202>\033\262\267>\351\362\346>e\033;\277\360\204\335\275\3501\022\277*\013s\276Vx\236>G\302\306\275\224-P?\267u\204=\211E\376\276\'\222\020>\334L\206\276\303\004\002?\241\207`?\026O\222\276\337\255\201>C\334\255=\010\366\362=\212s\215<\306\375\360=&\377K=\332)\025\276\305\210w\275\0138m\2761\336\214=\035V\240\275\017\220V?\324\344,?\225 \321>~\215\000\275\004\3349>cH\373\276\262,j?w\016\346>\360x\223\276@Su\276\035o\212\275&)@>\0216\025\276\274\262)>Eni=8Z\020=\350\371\224\274Z\360\355\274\266\246\010>\023S,>\200\215\213>\315\017\r<Y\327\354>\312\354\\\277\2653\004\275\334u\\\277\222\005\326<-\230\034=\206\215\212>\314\213(>_\333\225>\300\240/=\206\300\034\275\255\363\005>89E\276\372C\216\275P\221\205>\270tE=\352\250{\276\236_\221\275\205\315R\275\322\rR\276\347\025V>\030\203z=.\211\260\276\230d$=/\257\317=!\031\004>\214\025A>\250\246;>_)>\277\251\204\213\276A\213\026\277\310\377\245\277SU\372\276\216\302N\276\255\025\344\276\217\301\245\276\321\221]=\370\236\010\277\317\200?>P\'j\276g\225\026>\320lE=\tC\r<4\326\004>\212\371\312\274[\005_=6\344;>$\017o>\0009\037\276\'\320m>KM->d\340k\276\247\266>>\032\003/>|zM\276`-$>\204f\020>\263\275\014=\036\247\002\274\360RQ>tR9\277\321jo\276\374\024\250\276\241r{>kon>q\031\265\276\203\\C>\320\300\362=\230f\204\300u.\r>\373\355\n\300\025z\304\276\0367\336\277\212X\320\276\246H\213\300\333\022\274\274ae\352=B\362\302\276\007\230*=mC\226\2764\375\205>bk\330>p|\264>\351N7\277c[\330\275\332\'\220\276\013\241\220>\2125b>\\d\023;\025\211l\276FE\026\276PB`>\253\250I=P>\267\274O\316{>\217E\026=\275\001\002\276\230]4\275"
      }
    }
  }
}
node {
  name: "dense_27/kernel/read"
  op: "Identity"
  input: "dense_27/kernel"
  attr {
    key: "T"
    value {
      type: DT_FLOAT
    }
  }
  attr {
    key: "_class"
    value {
      list {
        s: "loc:@dense_27/kernel"
      }
    }
  }
}
node {
  name: "dense_27/bias"
  op: "Const"
  attr {
    key: "dtype"
    value {
      type: DT_FLOAT
    }
  }
  attr {
    key: "value"
    value {
      tensor {
        dtype: DT_FLOAT
        tensor_shape {
          dim {
            size: 10
          }
        }
        tensor_content: "\221\206\345\273\013b\233>\242Qy=,F\251>TV<>\357\233\241\276\210\365\037>\372\366n>v\326\356>HL&>"
      }
    }
  }
}
node {
  name: "dense_27/bias/read"
  op: "Identity"
  input: "dense_27/bias"
  attr {
    key: "T"
    value {
      type: DT_FLOAT
    }
  }
  attr {
    key: "_class"
    value {
      list {
        s: "loc:@dense_27/bias"
      }
    }
  }
}
node {
  name: "dense_27/MatMul"
  op: "MatMul"
  input: "dense_26/Relu"
  input: "dense_27/kernel/read"
  attr {
    key: "T"
    value {
      type: DT_FLOAT
    }
  }
  attr {
    key: "transpose_a"
    value {
      b: false
    }
  }
  attr {
    key: "transpose_b"
    value {
      b: false
    }
  }
}
node {
  name: "dense_27/BiasAdd"
  op: "BiasAdd"
  input: "dense_27/MatMul"
  input: "dense_27/bias/read"
  attr {
    key: "T"
    value {
      type: DT_FLOAT
    }
  }
  attr {
    key: "data_format"
    value {
      s: "NHWC"
    }
  }
}
node {
  name: "dense_27/Relu"
  op: "Relu"
  input: "dense_27/BiasAdd"
  attr {
    key: "T"
    value {
      type: DT_FLOAT
    }
  }
}
node {
  name: "dense_28/kernel"
  op: "Const"
  attr {
    key: "dtype"
    value {
      type: DT_FLOAT
    }
  }
  attr {
    key: "value"
    value {
      tensor {
        dtype: DT_FLOAT
        tensor_shape {
          dim {
            size: 10
          }
          dim {
            size: 1
          }
        }
        tensor_content: "\246\222\206\275kB\200>\022\270\271\275\343\005\201>\254h\345\276\237\027G\276#g\035\276;p(>\003\217\006?@\267\204\276"
      }
    }
  }
}
node {
  name: "dense_28/kernel/read"
  op: "Identity"
  input: "dense_28/kernel"
  attr {
    key: "T"
    value {
      type: DT_FLOAT
    }
  }
  attr {
    key: "_class"
    value {
      list {
        s: "loc:@dense_28/kernel"
      }
    }
  }
}
node {
  name: "dense_28/bias"
  op: "Const"
  attr {
    key: "dtype"
    value {
      type: DT_FLOAT
    }
  }
  attr {
    key: "value"
    value {
      tensor {
        dtype: DT_FLOAT
        tensor_shape {
          dim {
            size: 1
          }
        }
        float_val: 0.2595786154270172
      }
    }
  }
}
node {
  name: "dense_28/bias/read"
  op: "Identity"
  input: "dense_28/bias"
  attr {
    key: "T"
    value {
      type: DT_FLOAT
    }
  }
  attr {
    key: "_class"
    value {
      list {
        s: "loc:@dense_28/bias"
      }
    }
  }
}
node {
  name: "dense_28/MatMul"
  op: "MatMul"
  input: "dense_27/Relu"
  input: "dense_28/kernel/read"
  attr {
    key: "T"
    value {
      type: DT_FLOAT
    }
  }
  attr {
    key: "transpose_a"
    value {
      b: false
    }
  }
  attr {
    key: "transpose_b"
    value {
      b: false
    }
  }
}
node {
  name: "dense_28/BiasAdd"
  op: "BiasAdd"
  input: "dense_28/MatMul"
  input: "dense_28/bias/read"
  attr {
    key: "T"
    value {
      type: DT_FLOAT
    }
  }
  attr {
    key: "data_format"
    value {
      s: "NHWC"
    }
  }
}
library {
}
