node {
  name: "dense_19_input"
  op: "Placeholder"
  attr {
    key: "dtype"
    value {
      type: DT_FLOAT
    }
  }
  attr {
    key: "shape"
    value {
      shape {
        dim {
          size: -1
        }
        dim {
          size: 7
        }
      }
    }
  }
}
node {
  name: "dense_19/kernel"
  op: "Const"
  attr {
    key: "dtype"
    value {
      type: DT_FLOAT
    }
  }
  attr {
    key: "value"
    value {
      tensor {
        dtype: DT_FLOAT
        tensor_shape {
          dim {
            size: 7
          }
          dim {
            size: 32
          }
        }
        tensor_content: "\010\330\327>:\376\274>Q\366\225?\213i\031\300\322\306=>2\r\352>\217\314\314>m\203\313>\267\306\202\277\245\000L>B\303&?\3409\215\276\214\216/\277;M\252\276\003+\n\277\010\332\023\277c\334P=\223z$?~\022\003\277\267y\215=B\270\265\276\304\273\237>\351\233\365\275\224s2=e\223\203\275\0108\246\276\'\351t\276|\3670=P\007\216<t\021W=\210Ni\276\331A\300=\"s\023>\347\272\032>!\300p\277&B\277>\346i\210\276\357\351P\276J\226\211\276\316b\230>\337vr>{\215\025>j\034v=$7\233\275\000\030\007?p\r(\277\327@g\277\335%\325\276\026z\276=\377\275:\277H\023\367\276b\314\207\275\226.\304\276\215C\030>\215\362p>\331\370\351\275\234%w\276\316H\260\276\340M7\274\331\037?>\266\243R=o8H\276\021\354\337<kC\177\275\373\027\346;yA\241\273\374\250>=\251\247\014<\3102\r\276n\013M<\236\367\252\273\010J\025\275W\211)=\374\352F=\003:\270=x\362\245\276\2736\250\276\244<9\276\305N>\276&_\202>(\"\013<d;\017<K\364\010>\225U\233\274\274\3151>\374\234\006=\337h\300=\016\236\362= \2231;\000\220\340\275H\301\261\276\347\354\024\274\201\027\035=\023\375\275\274\341\276h<\340Z\344=\222T\247\277\375]*\277\000\006C>kb\027?\304\317\235\276\247\330s\277&C\305\276\333}\325\276\253\226\030@\344\234\306\276\244r\305\300\252OG>U\031\273?\257Y`\276\213\315\001=\264\007\200\276\202\206\313\276e\237\256=\tr>\276K\377\334?\\\327\302>\024\007\264\276\202\3344?\0261T=w52>\266\361a>p\303\206\276\3719\355>I\223\214\276\017\342\357\2759\021\265\300+\253\t=2<\210><\374@=\315\365\375\276\352\2252=\322\206\262\276\245\232&?\rwQ\276\32367?.e\276=&\275B?\257\305a>\000\245A<\\*\004\276yu\245\276\\\357[>\255\354\240\276\030\n\275>\212\037\327\276\3607\243\276\020$\277\276~J\237\274\246\026;\277}\3116?Z\355\322\276_\2750>%,\250<\333*\263\276\202\021M>\221\346H\277>*\004\276\344\tL=\303\233m\276oxR\277\364\313\\?\237g\374=\307\253\367\275\266\345\035>\215\301\n\277I\002m?y\307\352=\265\241\351\276\202\335\372\276\217\324\322=^5-\276\375\254A\276\256$/>\224\311:>\370\021.\275\372sb\276U\030o\274,\257^\275\2550\375>\231\373f\276\311FH?\207M?\277\301\200n\276\t\022\277<\3518N>v\325\016\276\247<\205\277Cni?Y>\334>\322~\242\276\257\223\265\276\367\017\360\277\036\373T?\305:-?\303\220O\276\202\305\005>}\215\314\277\024\360\315?0\306\241\277/\306\r?\340\270\334\277.\\\343\276\3043\327\275\274\227\275>\032\200\010\276\250\024,=\255e\314\276\246\003\301\277\357q\313>\317\030\273\275\306S\253?\r\314\220>K\307\276?e\005\317\277\342\030\241\276r\016\335<nS@\2768bB\275\253\247\301\277\006\311\330?!\210\226>$x\256\276m\207\257\276"
      }
    }
  }
}
node {
  name: "dense_19/kernel/read"
  op: "Identity"
  input: "dense_19/kernel"
  attr {
    key: "T"
    value {
      type: DT_FLOAT
    }
  }
  attr {
    key: "_class"
    value {
      list {
        s: "loc:@dense_19/kernel"
      }
    }
  }
}
node {
  name: "dense_19/bias"
  op: "Const"
  attr {
    key: "dtype"
    value {
      type: DT_FLOAT
    }
  }
  attr {
    key: "value"
    value {
      tensor {
        dtype: DT_FLOAT
        tensor_shape {
          dim {
            size: 32
          }
        }
        tensor_content: "1G\346>8`\210\277\006\205\302\275U\343\003?\000\000\000\000\316d\333\275M\247\t\277\240\227\\\277\353\354\024>\'(\326\276\200\374\262\276\000\000\000\000\202\304\370<\021\203\214?\3215\260>L\006\214\275\330\273\177\276i+\023?W\216S?<t\022\276\243&\372\275\030\264\340<\\#|\276OZ\033\275\356\007h\276\003\370\317\274\000\000\000\000\300\000\374>@\310->Q`M\276%/D?\2043\033\276"
      }
    }
  }
}
node {
  name: "dense_19/bias/read"
  op: "Identity"
  input: "dense_19/bias"
  attr {
    key: "T"
    value {
      type: DT_FLOAT
    }
  }
  attr {
    key: "_class"
    value {
      list {
        s: "loc:@dense_19/bias"
      }
    }
  }
}
node {
  name: "dense_19/MatMul"
  op: "MatMul"
  input: "dense_19_input"
  input: "dense_19/kernel/read"
  attr {
    key: "T"
    value {
      type: DT_FLOAT
    }
  }
  attr {
    key: "transpose_a"
    value {
      b: false
    }
  }
  attr {
    key: "transpose_b"
    value {
      b: false
    }
  }
}
node {
  name: "dense_19/BiasAdd"
  op: "BiasAdd"
  input: "dense_19/MatMul"
  input: "dense_19/bias/read"
  attr {
    key: "T"
    value {
      type: DT_FLOAT
    }
  }
  attr {
    key: "data_format"
    value {
      s: "NHWC"
    }
  }
}
node {
  name: "dense_19/Relu"
  op: "Relu"
  input: "dense_19/BiasAdd"
  attr {
    key: "T"
    value {
      type: DT_FLOAT
    }
  }
}
node {
  name: "dense_20/kernel"
  op: "Const"
  attr {
    key: "dtype"
    value {
      type: DT_FLOAT
    }
  }
  attr {
    key: "value"
    value {
      tensor {
        dtype: DT_FLOAT
        tensor_shape {
          dim {
            size: 32
          }
          dim {
            size: 64
          }
        }
        tensor_content: "_7\266>\0304->\214U&\3001S<\276\326\020\303\276\232\005\255>+~\001?\303\3746>\022U\324<\320\312\343\2763I\216;\234\\\202\276t\226\365;\010\201R?\274\006\265\276usQ\276\371\004u>\364\210\023?\304\334\240\276\030\253\023\277!\356\'\275`\335\\\276\016\262Z>\366*\240\274\031\231\246?`\241\204\276\334}\003\276\310\223\n?u\202\237<\257;p\276=\360\000\275loB>\237\356\220=l\357\242\276\"\322\343=\306\306_\277Hr\210<\242:\202>\027\336\222\275\3145\330\277\216a\204=\006\356\201\276\221\325\305>7\216\273\276\324\373\312;`\001f\275xO\366\275\273\257\312\276,\2238?XU,\276P-\352\275\222[.?\206\235\325=m\260L=\177\334\352\272\365\3352>\230\0335\276\243#\255>z8\212\276\277:\000\276\253\260v\275\310v,\276\2030]\276i\271\251<\233\233\244\275\306\226\235\277\236\217g>\235\305\247=\227\317\265\276)\031\314\276T\016j\276DBK>s;z\275M\211B\276R\301+>L\264Z\276\311\230\205\275\216\036\017\277m+\311>\202\361\207\276A=\256>\330V\255<8\037\254\276\306\310R>\nd\376\275o\252(\2767=7<i^W?\261\206\244\276Mk`?\356L\317=X\021{=\271\034n\276=\230\314\275\255\347\202?Y\243\230>a\215\351\274\245\215M\276\254\377x\275=\204\315\276\306^K\275\"\212\373=\223\271\334=\013s\013\277\231Rh>\343L\022>\335\352;=\036\376\021\276Jn\232\276\014\352>>\002\031\003?n\215\022?\207\220\003?ex\214=\257Y\266\274\024P\361\276$s\207\276\317\003P\276\353O~\276\275\205l\276KO&\276.\327\">x\354\004\277E;U\276\340U\253<D\232\222<\267\325\036\275VkM\276P\203#\276\370\222\n=\036\206\320> 5\271;\306\006U\277=\336\000=I\007\377=d\250\031\276i+\201=\014\206\022\300t\377\013\275\350p\266\274\004\361\230\276k\333\224=\010\306\240<\255\213Y\275\304\035\255\276s\n-\276\257B\006\276T\341K>\312\331\033=\020\'3=~\375i\2751\\\263\275\235\354\026>\312\250\213<\372,\261\276\024\n\305\276\344\2021=\345}\035>\307\014\027\277EA\272=\021\356R\276c\344\224\274\376GE\276\221e\214=K8!?\326\006:\275J\177<\275G4\024>\037\'\224\276\201\326m\276fy\014=<\361\332=\272^\221\276 8\302\275/\237+\275Os\264\276w\016e=q\233 \276`\006\235<\335\312h\276\222\267\241=o;G>\343\344\312=\277B\371=\365\252\271\276\300\371\315<\020\250\022\276?Y-\276\250U\221=2q\232;\236\265\030<l\325;>\316l\025?\364<X?\3129\213\276y\325D>T\302\237\274fi\200=\246\2072\276\316\305\301=*v\017\276\2566\303<\022\212\020>\236\207\331<\245\266)>8\315K\276\374\365@\277V-\037>\026\272\023?fOW=\300\2448=\354\246L?|wc\276\267\234==8\253D>\033l \277OJ\002?\245\322\211\275^T\317>w|\023\276w\367\231=\241\031\007\2774\336\016\277tl\237\2760M\367=}P\232=\216hi\276/F\004?\354\331\263\276_\024{\277\300\207\234\276\362\360\205?e\244\325\276\376\255\337\275\342\3611\277Wi\210\276\271^\225=\\\037.\276\322.\222\276\002\261\211\276\177\223\004\277(\313Q\276Sx\035>t\361\334\275\230\327\261=P\340q\276\266!\275\273+\310\312>\260g\035\275Iv\355\274\203\233%\277k\360I\276\207P~>\300T\007\276\317\315\001>\303\355\022\275d\253\n>\320T\365\275\220\220\314=\340l}>\240q\370\275\000\345v\273h\021Z\276\370\023\023>\300q\014<\300\343\307\275\010 /\276\320\017\220\275`\246\370\274,\243\002\276\030\362n>\260\360.\275@\3374\276x\016R\276l\2044>\240\367S\276p!\332\275@y\352\274\310\372\230=tL|>\340}:>\000\224\311\273\234W\r>\340\226\303=\004\026u\276\210\315\217=\350\200\205\275`}\216\275\010\2658\276\2308\026>\350\317\304=p.I\275p\363\346\275\354mO> \376\354\275X\370\235\2758eX\276\260aw>\344jt\276\334\260=>p\245[> 4=\275@\007\254=\300\202I=\030\352\211=\360m\305\275@X\231=p\351\013=DG\013\276\300\330\213\274\300\247\346<0\'\202=\300e?=\004&\n>\000F\353\272\344BV>|\245f\276@\263\354=\374\375\n\276\230HF\276\r\237\021\277\352n\352\276\034\207\264\277\356\254\372;\224.E?\232\212\030?\"\352\374\273%\322\003?\276To\273\314I\302>\003 \003\275\004\321\332\275\330\000\336=\323nR\276wG+\276\033\334\270=\340iF?\247\010/?\222\307\316\274\336\243\013\300\277\001\340\275[\271\005\277V\365\234\276\303u\254\275\354\224>?\357\310\023?\254\036\323\277\217\320\244\277K:\017>\014\307\253\276\237\031\226\276\357\300\231=\202\226\232=o?G=IT\333\275\305Xu\277\306\263\265\277]\263\212=A\357\r<\360\230\211\276\340\306\253>z\023\'>[\024\261:\236b\363\275\242l\210\276,\231\004>t\260\030?\362$\222?x\373\332\277\224|\203\276\367k\002=4=\213\273f\203o\276\220\002\257>\361\304)<\213]\260<[\n(\300\334C\252>\363\340H?{,??\000c\310\2735\250\241=E\330\225\276\330\035\235\275?}\253\276\227C\314\276\001]&>\225\251\023>\263Q\263=\253\244|\276\027\316,\276jt\271=\216\224\030\276*\351Q>\002\374%>\'\202\352\274\037\313\252\275\205LS\276\326K}\276\231/\226\275\222=\031\276w(\247=\344\026\026>\347\377\321\276\230\255\251\275{\231\270=\010M]:\376N\024?|\250\243\276B\211\001?\255\202\203\276\202\315\243=\352\005\023\275b)c>\337\275\242>\236\304\312\275\322/\222\275\374\364y\276|~*\276f\311\201\276U\201b\277&\224\213=\221\331\332\275\221\213\322\275p\276\366\274\244S\033<\245G\000\277X}[\276O\037\263\276\340\332\237\274\227N\224\274_\305p?\033H\252\2754p\006\276\030\356_\275zgC\276o\262t\276g\275\013>\023\213\214\275.\'\210>&\376H>\301\250\302\274ei.\276\227\224y?8\227\212\275$\253\260=\nC\304=l\364\205\276\263\006\221\276\260\240i\277\227^\"\276\246\270\334\275\260G\220\277\340vx>\313\3125?\276\256\014?\375\031\303<\025j\032>\226\244\266\275\341\371B\276B\342\200\276\216\206\226\275}\340\370>\375\005|\276ge\027\277\017O>=\306\241 >\003O\346\275\314\211~\276O\363K\276\221V\343\276\363\264\223?/\032i\277\217 \024?\035\340\302\275\010\020\0338!\217\311\275U\000U=\330\346i?\002\343l>P\356\250=.\237\034\276\350\344\222\276\265\3473\276=\354\227\275p\341\002?\250\361\336=qsM\277\243\375I?eX\234\276\007\034K?\226\257\222\276\216\005\255>(\343^\2765t3?\303\271G\276\306\251\221>\320+A\276\331\266\343\274\237\2114>\005\0259\276\207u+?\006D\210\276u\271\363\2765\267\227\277A\202\031?\313|\333\276)z\021\277\365\243)\276Ht7\276=\353\346=\242\273\031=\265\013\255\277F@\201?\214\260\243?\2671b\276t\343\323\276\337\302\230>\014\336\327\274^\236\275\275\315\177h=\177\275,\277w\310k\276\265\331\272=Fl\310\275iK8>\205_\342\276sT\304=\345\004\323\276\257\377\n\275\352\203\254>\030D\366>\223\376\330=}\n\242>\255^!>`\241\211>\010\037\177\2762\375\010\276\314lS\275\214\036\267<{W\240\275\253&\250>\014\334\211<\2236v>\241$\036>\247\307+>A\372?\276]V@?\006(\207>\264:$>\273+\006\276\021mA@\263\307\306\276\t\311\023\276\253\001.>\233^\256\275\235\347\">\370+U\276\247jy\276\227R\032\277\303\227\202\277\222\334\266\275ky\276\275\030X\177<\364*i\276\217\tq>\006p\314\275\020\224<\276`\244`?\341zP\277`\233|\276\340\032\326>\013\347J\276\004\351\030\275@zi\275\266~\021\276\025\340\031\277\370\221\217\277\316\032=\275\031\321O\276\003$W?.~W?\206\3668?;\036\212?\2076\215\276\261\2213\277\217\n\217\276D6N\275\253qb\276\205z\241>\340\010\306\276\2638\224=n:<?Q\200N?`\321\255=\232w\255\277\237\010\224\276Sx;\277x\305p\277Jg+?ef\226<\376OE?\206\007\230\275%3\255\276\323\205\301\275\351c\003\276\275:\022?\2319\242\275\260Z\231<\252L\213\276j\210\244\274\256\352\254\276\3541\021\277\216\266&?\255/\217>n+\357\277\305i\177?i\010\330\2739R<?t(\326\274\363!\211?\234\013x\276\037\276K?\355t{?@u\274\276\257C2\276\300\241\033\276\036\320(?\335B\305\275!\254V?N\250<>{\252?\277A\033\310\300\331\2359?\347\027\376=\312|\375\276\354\324g\276a[\003>4+!\277\350\r\231\276\352\017\222?\262/\373=\025\345\341>\307\027~=C\276+>\337\334\017>\330\013\020\277N\201\017\274/&w\275\302R\242\275\276\036\255=\260\313\030>\020wC>j\tE\276)\\<>p\016[\276H\"_\277\372k\227\276M\211\327\276\304\327\n\300 \275\032=\355\2050\276Y\024\372\276\3604\021\276\316\232\316<\267\220\261>\217_\222=\036\321c\277j\252\344=\216\371G\277\027\322\345>4\020\341\276\'\"4>$\274c<+6V>|P\203\276\223\310\305\276q\035\233=\"\201b<\355\005\203\300\272\222\264=7UK\276%\016\316\276\241\037\207\274R\306\376<\014mi\276o\227\037>\344$\022=_\027\215\276tiX\276+\306\030\276\276N\033\277\037\201S>B)\016\277\364\'\004\276m\376j\276i)\201\276\037\0341>\t\336\316\276\253\367\212=0\326Z>\000\247\006\275KZ^\276vG\371\275X\013\273=\244\351t\276`x@\275 \340\221\274\204\222\017\276 87\276\200\207G\276\314\236C>L/M>\000\022\344\275\360\013X\276\220\320\000>\250\206\023\276\264\313(\276\320 \027>\000\2264= \021\260<\020h\251=\320?\270=\240\345\325=\010\253,\276h\351\266\275\0001\004\273 a\361=\000o\232=\320\020{\276\310\306\030>\240\221\267\274@\357^=\010\0023>\010jx>\220\332b\275\300_\022<\334\3509\276\020\255:\275p\002\034= \202\t=\014\3745>\340=\027\276\240\254\034\276\250\301\226\275\224H\035>\020T\020> F\215=\000\222f=0\033\373\275\244%3\276\300@\364=\270\302>>8- \2760\210|= \257\257=\374\0362>\200\317\275;\340\343\240\275P\273G=\030\224v>\300\243#=\2349Z\276\000Y\315\275X\311\'>lS\r\276\210\354d>\300\211\177=\222\311\204\276U\034\">\246\273\252=+\033\022\276*x\201<\245(\233=I\325\014>!P\343\274y\004\201\276\301\316\025\277\304\037J\276\352\230w\276\232)\200\276\226\323\204\275\270\355\236\275\264\362}<\317\026\247\276a1a>\245G\254=[\033W\275\323\353\307=?\246\206\274\177x6=&\244\205\274\313S\355\275\350\310\275=\340\260\024=\312\265,>\216\"{\276\202\353\222\276\006d\024>\206\322\205\276O2-\276J\260\205\275\331]\r=\007i\320=\273g\033>\335\355/?\270{\371\275?S\010?8+\262\274\322\246\312\275\346\010\364\275\306|@\276\265$\327>\004\315G>(YS=\007\331\364>\335\243K\276\342-o\276\026\221\014\276\313\314\365\274\004\340f\276\'\277^\274\014:\247\276^R]\274\270\000\033\276\315\350\006\276\350p\205\276T\320z<\255%!\276?0\214\276;\275\221=\027\377\007\276\302\330w>\322\005\231=\333\367\204>\207L\203\276be\321\275\nw\\\276\247\255\032>\236{\027\276\365\314y\275\201\271\342=\2549U\275\316d\202=9\342\303<9\357J\272g\206\216\276\264\231n\276\233\300h?WUB\274\027\225_\275\2123\213\277@\030\222=\213\263\001<\224\025k>\314E\233=\334\345\332=\337\212\n?\"A\026>`D`\276\303\360\013>al5\276\337\273\000?\371{\'>\026\314/\276ax\217\276\265\024\277=2zt\276\260Ik\277H\014\317\277\312f\246\276Bq%\277\014 \224=\306\357.>%\025\375>\005\254f>\010\240\251\277\240\r\274=\330\377\334\276L\2147?\251\266\235>3\002%>\000|\000>\236\201s>\355#s\275\257\202\257<\2007\004=\327\215\330\275\307\262\002?\232\3649?\352,\020?t\215\254=\244\314|=}\004\n\276c\254\305\275|\333p\276\276\030\014?\'\223+\276\336\023\337\276d\207\211\276\027I\004>\001:\235\275\371\"j>\021\224!>\230\211\204>\372,\027>\224m)\276\241i\251=V\2175>\244\027\005\277\341\315\224\276\341\223I\276\351S]?\352\360\242>l\205\025\276[\r\226\277\370\302\276=\361\241%\276pP\033=\316\260\322=\362\3334>\231m\343=\216\360\203>\355\303\304\275tCO\276M\324N\275\316\247\323>b\210\274>:\254\020\276\260\327\314=\260\264\t=\360^\250\276\017\305\363<\202\275\271\277:\n\332\275\002_\232\277\214\202\305\276\007\264\261=Z\031`<>Hj\276\304Q\306>x\207\320\275\324\344\257>\360\277G>\356\333\232\277c}h\2766l\347\275\307\314\313=\010\221\257\275\315\341\212>\345o~>\025\315\232>\025\247Z>\037\235\370\275\034~(\276\221\000\217<\204\324\016>\200p\322\275}+\265=\004=7\275[\261\226<\262\377\202>r\254\221>\000\014\034;0\n\213\275\006\333\304\275\357\323\\\276\336\0322=\360\2437>\301_\241=P}9=\243KS>\270\'\262\275\247\247k>\230\200\275\2752\031\276\275ra\276=\013J\275\275\321/\307=p!\265=\350-\t\276 \221\352\275\306\334\254\275\276\336X\276T1\320;l\'\216>]\337u=\215\202+>\000\323\277=\371Z\335\275\203J\217=\3331\213\276\322\364\216\276\360\225K=\010+%\276\201\3772\275`\337\364\275^/!>\260Sb\274\274\230\203\276X\317P\276a\340#>#\242\320<b\220\352=S,5\275\340\204\304=\365\331P\275\240\365\320\275\275*E=\234?:\276(\270\321=\035\301x=\300!A>\374/b\276A\363A\276\\\340\306\274<\306m>\226\263\341=\313\233\311\275P\224\n>\00051>\224\274\010>\375\364I>\326\221}\276\3160`=\352\025]\276\207\351-\276\031\302\275\2749\267<\276\273D\221=*\377\r\275\223w\217\274\254\250\201\276\001\311\354\275\210\014\203\276m\231\260\275\277@A\275\037\000\217\276\003\317\367\275\304-\177\276\344|\007\276M\2374=\337KV\276\362w\037?\313@6\276\231(\235\275\331\301\235<pZ\221=M\206\257=\331\3627>\033}\245>\255\005\202\2773\362c\276=\375|\276\301\244\023>\337C\255=E\372\273;<\214\025\276d\027A\276\254\235{\276\203\274\233>\3152 \276\226\213 \273\007\333R\277W=\">\370Vi\276\302\330{=\0356\250<z_E=P\370\222\275a\277\351=P\276\305>\022\362\215>\r\177\034>bTT\276\251\207c;\211aM\276\331P(\276\257\2561>G\215u<\207\2541\277\373\377\250=P\222r\276\250\240E\277\351\312-=74Q\276\005K\022\276\236\227\004\2768V\337>\023\312.>Y\316\244>\243D\204=\266\272\207\276\003\3620=gK3>?F\276\275\364\312\022\276C\212\017\277h\254\010\276\243\022!=\321\373\246<\344\325\037>\006\306\332\275D\301\373<8c\373=D\316\240\275\332HO\274\316\232\250>\351/0>J&g>\220\327\365=*7\334\275E\252F>U\251\220\277\276\177Z?\352\341-\276`0\372<%\272\223\275+V7\274v\327\202\276h\314\313=\343\320\242\276O\365\303=\226<&=\033\tV\275d\204}\275\001\355\032\275\301v\324>\341F\004:\236m)>\324\365\r\276(\276\263\276\251\277\220\272\214Mi\276\236\271\374\276\340\332\206\277/|\002?\200\000\023\276\305F\030>\033\231Q<\000\250\220<L\022\315>\026\311W=\371\336\315;\235\250\344>\027)\364\273\260R?\276\215\372\003?\006L\027\276x\\\274<\3158\212\275\224\020J\276\242`\226>\030ye>\223PS?\014\345\020\276of\211\276\354+\252\273\014u\255>\021\311d> \243\037>\351\263\370\276\257\000\010=a\nF\276\320\r\007\275\266%\207=\234\316\t\277\262O)\2762I\204\2765Z\326\273\321w\363=\235H\021\277P3~\276\202\336=\276\371\032L>\242\272/\275D\241\316=\354\322I\275=!\275=\3261\014?x\301P\276e*\024\276\3560\234?\331\024\341\275\306\360R=\027\010=>v\210V>\322!c>\234g\247>\331w\206?S\206F;\365I\252=z\224\003\276\263\330<=\235\344Y=\020\020\n=*\221\020?xz\355\275\251\\e\275\357h\220=;\020\021\276$\310/>c\242\200=\030\235\357\276Y\305\267\276\274C\350>\250\231\235\276\201&\212>\223\312\345>\327\2101\277\334+\013\276\364Xo?\327\251\276=\307\371\227\275\006MM=\357Y[\275\261\303F>\004\373\332>\314Z\254>\032:\217\276\030-\300\276h+,\276\357\017\000=\225\001\200\275\366\256\330=;\036?\275/\300Z>\014r\322\273\017E\022>B~f\273/\031\226>5\0010>&q\306\275\226\244\214\276\'\250\017?l\366\255\275\363N\245=b$\347=\206\261\317=u\332\213\275\211\234\307\276\203\344\272\275s\275\326\277=\021h?\265\267\234=\257,\222\276b;\022>SU;=\366\215\020>\363\207\245\275\251M\217\276\330N@?e]\231\277\235\200:\277n)\242<g\261\031?\363\002b\276\033\027\037\276\n\362\267=\353I\266\274]\205<<8\273v\276\370\026n\275*\256\352\277\345\035\271\277\240w\233<\214\321)\276n\220U\275\237\343\335\274\007]!\276\301/\017>\315\337\232>P\350?>\263\242\025\276\021g\244\276>\276\004?\345q}\276\277\233W\275_{\017>\231\265\001\276\321\221\204\276\242\017\006\276^G\203=\000,\325\272\034]\256=p\370\026\275\243,\":\02459\275\317\242_>\213\333\245=x.\277=\315h5>$i2\276u\230\034>\310\3427>\006\276h>$\254[\275\203\245\t>jix=\027j\212\276\230\251\274\275\245\271*>$W\232\275\356x\207=\241n\030\275\303\312\276=\346\022\301<B\331\014=\\\2106>\341K\326\275\341\367\277\272\314\n#>\211\003\362;\373\262\350\275\340\344T\276\334\200*>\246ca\276\341M\324\274\000\205\216;\'\307\232=\360\242\206=\037\332\370\274fb\023>\213\3447\275]\340\212\273|\326\177>\276\345\034>\237\203\330\274\266V\375\275\334\261E< \217\247=c\007%\276<\016$>\376\307\205\276\306oT<#\231\300=\365yh>\014SQ\276\031\010B>Fik\274\360\030\217=?\237\370\2757\017E\274\356G\272\275[C\254>\373\331\262\275q\233\255\277V=q=+\274\300\273\243<K\277\204\007\277\276\326N1\277H\237[;\261\255\267\277\330oF\276\320\313\202=]^\253\276,\357\027\275\362\\R?.\371\363;({\226\276\200\201 \277z\245\226\276\023%\265=\027\212\254\276\207\033#?\273@\312>\270\203\334>\305\201(\275\022\001\214\275\227\265\352\277>\002\265?\005\370\276\274\227! >\201|T?\306\307?\276\220\346r\276\277{\004>z\316\215\276k_\316\2764\207r\277\005B\323>\276W\376\275\231\263\231\276\216@\221<?\2107\276J\253\216>\035+D=\031Wc?\270C,\276F\251\013\277\251\007\250\277\267\240\254>\363\022\213\276\223ab\275\344\303\245>\033\273\202\276\265K\303\276I\244\034=~0R?\353\3512>\353u\347\276\004\037\013\277\336k\016?\003O\220\271\222\245y\276\212e8?a=\255=\353P\247\277g\013P?\377\316\201?ls\007>\274\335\214?\005\254#?R\326\336>\322\030\221>\364\225\202<\265\027\346\277z*_\276xF\202\275\261b\205\275\324\263!?\216\2524\277_}\341<\346\317m?7\306\n?|\273r?\221\203h>\362\323\376<T\306\033\277\305*\341\276\240\031\217\276\236\204\004\277K\023r>v\2123>g<C>\207\310\312\275\246\033\312\274\373\0316>\213Oc=\2118\220=\314\335:\276y!t\276\211\374\224?\3158\375>R\316]>\306G6>\232\200\220?\003s\301>\227lG=\227\224\027>z\254\001>\265~j?\324\317+\276[J\003?\216.\r?\320\220\376\276\354n\314=\354q\007\276faw>\006\227B\274\263\355>;o\2265>\007u\032\277\2169\025\300@q\241>\3754\206\277\202\341\032\277:\346\224\276\367\n\262<S\2079\277\367\223\320=\331\365\n\275c.\001>\034y\223\276Xq\214\275n\244\205\276\336w\347\274\\\370 =\327\265\031=P_\212\275\340R\321=\334G7\276\1770\320=\354X}>\237\337h>\210\335\332\275\204\3471\276\303\210\345\275!^d=\311\0006\276it:\276|/ \276-\253\321=\024\t\324=\037\237a>\350kn>\252-S\276G\025\231=\374\307^\276,\367f>\007\325]\276\307\203\370\276\235\214r\276\245T\n<\rX7>\030\276r>\033\211&\276AiO=\035\324\375\275\346ZS\276\016\2261\276\242\376\234;\300\367\206\274v\326\010\276\364A\347<\2517\317:\020\240\264\275\234b0>\232\340~\276\277\202N\275X\361u>\370\330\337=\255f)>\376\201,\276\360\213V>\363\201\244\274\245\2067\276\225\030\227\275\201\353?>~\331\345=\321\352/=p$\204\275^k.>k\311\254;$\000/=\240\375\020\274`F\204\2769\263*>\344Vx\276\020vk:\306R\312=\224 \326=\033p\244\275,\n}>E\241%\276vCp\276\007\205v\275\276\2346\275\001W\222=\253\373\016\275\032-D\275\021\241\022\276JxR>\301\262@<\324v\231\275=V2>I\245\326\274 \3766\276\335\307Z\276\365O-\276z\336\370\275\256\033\000\276\004\313u\275\354S\022\276\254\255\357=\217\255\031\276a\315d=\342\017\035>\003\220~\276\270\001\225=\302\035\016=\341\316\036\276\205q!\276\213y\225=F%\314<0\233\002\2759 b\275[\366\215=\204\234R>\021Fk>\350\314\367\275\360\220\030=\304\356K=\302\257\034>&\022\001>L\253\203\276i\271\236\276)k9>~\356\222=\320\034+>.\245\002=\264\240\332=\357\325b\275 \267\332\275\200\217r\276\350\205L\276\354\223\227\276u\021T>0\3312>\024\304\372=\360\364=>\213\\S\276@0L>\220\224\032=D\376]>\365&|>\264\331\250\275\240zK\276[\033z\2750\217\003\276X\366\213=|L\022=\226+\027\276\331\257y>\234\367\003>\210\344\362=da\305\275\334\303F\276\267)-\275\220qw\275_\206\354\275\343\317\373=b\341\005>4\372\335\274\214\254\305=M(R>\333\320#>\\.u>\026\233N\276\336\317\002>\234\020Q=\027\370K<P|\016\276\254bL>L\336U\275\365\3045\276e\033]>\361\\\322<\237\373\214=bFN\276\3640S>}5l>\220\256\t>(\315\257\275t\025q\276>\371m>l\272\313\275\331\200\036<`\231\020\276\340gN>`\210\237=\010g\303\275\036\256W>9\017d\276n8x>\024\311f\276l\351H=/1\237=\201\334)\275p\351r=\300\217\253\274\310\267\r>\370S\346=\274QN\276\200\213\223;H\361%>\360\013R>H2.>\310::>p\020\023>\3705\177\276\030\232>>`\220\226<\360\321\212\275@\273\206=H\2117>PO\t\276\360sZ\276\200\366*\274\340%\r\2760\000G\276\210\024\316=\260f\177\275\244P\020\276\020\025|\275\000v\241;\324\323k>`\016\037=\310\302\003\276\320Tr\276\344\227l>X\366\276=0\255U\275x\005\370\275P\264)>\300\260b\274T\344}\276p&\210=\334\205\003>\2206\274= \213K\276\360\"k\276(>\r\276\320\020u>(G\234=<\016e>H`\232=\320#+\276\240\260a=\010p\346=\320\251\002>(\037=>\344r%\276D\365\033\276\024\026<\276\260}]>|\223T\276 \363\272\275\330\326\364=\200\222\t=\320\270f=\300\216\241\275\240\031\363\275\300A\027\276\260\033\036>\024\207\013>x\306\324\275\373wS\277\275\211%?\032\023\250\276\036\2771\276\337(\216\276!\\\021\275hp\223>\026\245\002>\231\322\246\275\"\353\031\277\263u|\276z4\003>\304\005\240= ,\035?g\202\305\275?R\212\276e\216)?\364\371\264>U0\355=\372>\206\276\343\215v=z\035z=\024\235d>Z\266_\275bn\007?\204uk\277\232B\227\276\324\222\036?P\351H\275`\004\263\275V\240\216>j\233\307=~H\017=\276=\031\275O\273\236<\314\260\004>nx\364\275\003\343\010\277q\321\334\275\")\300>\'\211\003>\030\245\340\275-\240\001>$<\343\275e\266\344>\264Lz\276b\240\265\276\031\367\235\277W=H>T\352>\276\024\354\030\276\350`3>\300Q\201=\270\010m=\205\212\240\276\017B\300=\263\364D?\236X\276>I\320\035\277\t\000&\277\300\235\025>?F\264=]\031&\276\n\322a\276\265{s?\255qI\277\231\357\340\276m\036)\274\3551\244?%1\362\2772\344\237\277\267\307\236\277\331+\266\275\021]\203?G\206\300=\342\364\031\276\342\217\230\276&\373\374\277R\360\357?\375a\250<\236\350\006\300;\276\343\277\307\356\256\277ym\017?\321>\246\275(5\336?7\352\325?\351b\252?r\272\006\277\246 \001>z\3173?\237S\241\276\212\342\215\276\304\214\364=O\"\014?1\244\201\276\206\213\254\275^Y\200\275\252\222\263\275\005^\253\277\256t\255\275\235.f?W\372\210\276M\207\t?\215Aa\277\301K\024>\314\263w\277uv\000\275i\267\314?(w\210=\206b\222\277\202\364\201>3R\266?d\263\232\275\367\372\236\276)\234\337\277`6\210=\334\254\267\277r\301\322<g\234\311?\337\353\230?\341\010\334\277j(\301?\213lw?\307q\227\276\014m\222=_\376\n@\312\333\266\275`\'W>\036\027\002\277\274V\230=hvW\276\032)\004\276\221Y\301\273\315\037#>\202\2139\275\272\035\315<fn\244\275\024\356\275\274\244F\336=\036P:=<\240[\276\251x\357\275\226\037\215\274k\344\237\276\351\340\213>]\006K\276\021*\007>P\322\t\275!\177?\276\362\277\236=*A\006=(}_<mI\030\276\016}\215\276/<\032\274Z\373\223\276DcK>\351 \200=\327n\007\276\332\210^\2768\223/>\030=\213\275\\\253\003>0\377\221\276\022X\034>\250\013.\276\246\374\002\275\216T\254=\225\021N\276\210U\203\2765\2703>\202\354D<\360`H\276Odj=~\366\271=\232\230\033\275\207r\367\275(\231}\273g\\5\276\304\322\005>\030u\020\276\352\352\273<t\t]\274\304\325\031>QC\223\274\345\236%\276\020v\257=\350P\257\275x[B>\217\355K\276\030\007^\276\255\262\346?+\206\232\276:j\376=\352o\266\275\251L\241\276\302P\001=\306\377O<|Ej>_ZF\276\010\303D\274\273\250[\276\276\022:>\315\367\314\275\0055\212\276~1\357\274\177\255\376<L$\366<\235\203.>\330\027\033\277O\023E\277\024``\276\353\361\240;\356`\033=\371\337)>\032\272\254?\327|\244>k\343\222>h\t\333\277\354\304b\276\307)P\277\n\372Y\276\020M\322\276a\234\002\276\nY\226\275pF[\276>=\021\277\031X\203\276\256\255\275>\t\221\310\276\265\220/\277\037O\022\2739\275\223\276\346\360U>}8\310\275\346\353\252=$\215r\2764l\215<\214\222\'>p\334z\276-\275\216\276cc(>=\254\337><\301\214\276\274e\257\275X(\000\274/\r\342\276%e\360\275!4V\275&\375-\277\357\354\212>[y(\276\261\345~\275/h\010=\255\361>>S[l\276\013\205\244=\342\242\333\275\350\020\354\275@\237l>\033+\313\275u\030;>\005\252\255=a\357\037\276\320\276c\274\2267\033<\377\033\220\276\010f2\276\032\374\034\275\346\005F\275.\352]>\342j$\276\305\374\t>\307\240\367<\026\006\037>(\363$\276\034R\251\275\210\362p\276\301\331d=_{4\275[\003\335\274xm=>i\266\313=\262\343]>\r\340\t>)\336q\276l\363N\276\2466\246= \255j\273XVq>\010\206\303=X>\230\275:\260\026\276\271cr\276\307\026\036=\251gq\276\200\025\016>\263\350\024\276\267T\324\275\003f\272<\274lW>\257W\021>\247\3712\276\002\207\243\275A\312\337=2\260\n=`&\254=N\213T=\270\2753=c<G\276Zu\215\275o!\177\275\271\216&>\307\021\023\276\336\361r;4\341\024>l\332\237;\265\230F>\306~:;"
      }
    }
  }
}
node {
  name: "dense_20/kernel/read"
  op: "Identity"
  input: "dense_20/kernel"
  attr {
    key: "T"
    value {
      type: DT_FLOAT
    }
  }
  attr {
    key: "_class"
    value {
      list {
        s: "loc:@dense_20/kernel"
      }
    }
  }
}
node {
  name: "dense_20/bias"
  op: "Const"
  attr {
    key: "dtype"
    value {
      type: DT_FLOAT
    }
  }
  attr {
    key: "value"
    value {
      tensor {
        dtype: DT_FLOAT
        tensor_shape {
          dim {
            size: 64
          }
        }
        tensor_content: "U3D\276\010\360\252>\217\"\223>8\240\026\275 \370\231\274\237oT\276\325\206\235\276~\376\323\276\006\263w\275\n:\026?t3\240\275\005%\312\275\035\264\270\275\360\036\375=N\321\365\275=\013V\275H\2169\276\365QW\276\t!\227=\213\014\266>\374\343\267\275\274&\230>\274\'\310>\331\253\030\277\177B\037?\203\251\033\277\357\226\362>>./\277Q\222\204\275x#\273\275\2265I\277\025\242\264\276V9\030\276m\n\261\275m\327\237\275\215\304\244>\353\025\036?Mx\340\276w?|\276e\233\024\275#\230\233\276ua\244\275\330\350\320\276\364\252<\275z\214I\277\000\000\000\000\033~\270\276\314\232\321\276\326)W\272o\022\002\275\314H\267\275\260#\230\275l\003\206\275?\274\227\276\031\017\034\276\035f\220>\'\255\\\276\342\271\257\276\262\274\014?\315@ \276*Hk\275\203\242@\275Z\246\330=$\021\256\275"
      }
    }
  }
}
node {
  name: "dense_20/bias/read"
  op: "Identity"
  input: "dense_20/bias"
  attr {
    key: "T"
    value {
      type: DT_FLOAT
    }
  }
  attr {
    key: "_class"
    value {
      list {
        s: "loc:@dense_20/bias"
      }
    }
  }
}
node {
  name: "dense_20/MatMul"
  op: "MatMul"
  input: "dense_19/Relu"
  input: "dense_20/kernel/read"
  attr {
    key: "T"
    value {
      type: DT_FLOAT
    }
  }
  attr {
    key: "transpose_a"
    value {
      b: false
    }
  }
  attr {
    key: "transpose_b"
    value {
      b: false
    }
  }
}
node {
  name: "dense_20/BiasAdd"
  op: "BiasAdd"
  input: "dense_20/MatMul"
  input: "dense_20/bias/read"
  attr {
    key: "T"
    value {
      type: DT_FLOAT
    }
  }
  attr {
    key: "data_format"
    value {
      s: "NHWC"
    }
  }
}
node {
  name: "dense_20/Relu"
  op: "Relu"
  input: "dense_20/BiasAdd"
  attr {
    key: "T"
    value {
      type: DT_FLOAT
    }
  }
}
node {
  name: "dense_21/kernel"
  op: "Const"
  attr {
    key: "dtype"
    value {
      type: DT_FLOAT
    }
  }
  attr {
    key: "value"
    value {
      tensor {
        dtype: DT_FLOAT
        tensor_shape {
          dim {
            size: 64
          }
          dim {
            size: 64
          }
        }
        tensor_content: "\204b\276\273y\t\335>l\362\374?E\226O\276,6\224\277\303\355N\276S\320\300\276\301gV\300ft\225?J\030@>\377,\220\275\'vd\277d\363\266?\302a\373\273h\332\000\276\261\227\350=\204\177\337\277v\207\230>0j\022?\242\305\231?\204\255\262>A\302\202\276t2R\277\317\035\364;\230\264\206\276\326\262\241>\256A\254\275\326+M@\210\362\362\276\345l\377=\343V\200>\2044\355=\177R\007?\200\372\000\277\355\243X\274J\274\270>z\023K\276\"\242\277\277\215q\201?X\376\231?\223b\201\2771\206\036?+(\021\275\022\020\376=\341\021~>x`\211\276\253\276\005?\344\354\336=G\217\266\276&\225\206?r\372 \277B\025\311\276%O\242\276\020\357\037\275\237\005\001=S6z=\n4\342\277#S\230\276\360\'N\276\02468?\270\242\312=\377*(\276\313M\224\275\373#\001\276\033\221\005>\023\243\036?\'\371\212\277\204\0030=\327\023\212\300\300D\030\277\237\206\t?\267\004\244?WFd\277.1\005\276\311\316\221\276\262]\320=^\035\353\277\022H3\276\271\017\336>\252Rc\275\320\272\352\275-|\222\276M\017\027>b\324\232\276\320!\024\300u\247i\276x\235H\275\377\337\372=a\232\323\275\035\021 \276]\022%\275O\0032\300\207B3?\363\263\036\276!\267\357\276+&\270=\233\314\304\276\252E\320>c\262O\276-\340:?b\245E\276,\023S\276\374\3011\300s\353\306\2779\022R\277y\242\334\276\037\363C\276\n\022\037\275\3706n\277\206\305\"=\017\271\372\276\352C\244\276\005\362_\276\007,\374>\353\240\233\275\270,\261\276\201;\316=-\304\253\277\317\336\301<l\370\013<\324+<\277\273]\035\277\301#W\277s9\224\276\300>\365\277HR\323\275\314\276A>\211.}\275\352\304N\275\217\354%\275b\222\177\274,\207\267\274\230T$\277\216\203\266>8\247\361>\311P\253?\211e\201;\335\270\240;_\214\306=\247\314!>\373\026\005\277\334\275\013=\263\262M\276c$\245<Z\314 >g@_\27604\362\276\361p\032>\215\251\220\277\346Q \276\260\326\004\277J\010\300<\264\024)\276\rjH>\274\261\001\300\264\001\n\300\262\357\032\300//g\274\251\316\305\276\265\222\362\275\313\255\255?\027u\337\276?N\207\275\000\017\253>\036M8>B\0010\275w\340\373\276\343N\037>P\374L;\020\376\363>K\'\316\275\272\210\350\274H\336\271\276\267\002!\276\333O\324\276!\270&<8\020\277<\270\345n>\341\224~\277yC\023>\330\250\202?(\346\000?#\n\354\275x\022j\2767\324\331\277\331\305>\276P\334\305\274\3457<>\242k\223>F\306\226\275r\2048=\245\377,\276(D\374\274\3179,>\313\223)>\364\231\371\275t\277\017\276f\251\226=\nW\333\275D\t\201\2757%\033\276\014\tp\275\241YQ>[\026\357=P\333G>x3\030\276\246Oi=[\202*>{\242\207\275\251(\223\2754Wf>I\243;\276\320\351?\274\240\\\035\275B\255\307\275\004X\013= \273q\276\375\244\351<`\013=>!|.>S\321\313\275\314Y\275\275\315\372;\276\247\353->k\221U>\266\312\225\275\225\2665>\254\324\247\275\2502\212\275]\242\030>\230\2575\276\275\204Z=\332qF>\215\214\037;\014\327\027\276n\310\312=\316\371B>A\232\035>\266\371\361=\037\010E>\350 \252\275X\246\030=\204\037\342<:\337r=\262\352\347\275\340\366\032\275\022$\304;G\252->\267:D>\233O\353\275;\262\013\275us\361\275\332f\262=\364_3\276<P\001\275\322x\351=n\006\237\2755\332\211=;R ?\020~)\274\266\244\256>\226\0230>\360\220\036\276\267\'\352<\027L\000\300\366\367\216\275tp&\274\023,\177>\274\344\203?\237`\337<d\232y>\247\353\\\276v\357?>\327\330\021\277\207&\247=\244\205\274\274\361\213\223\277e\317\">\207#;\277\n{\032>\352\353\264\276\272\013\222\277}\212\031\277\037\021r\275\364,\225\277\362\263E\276\371\335\033=SU\307=\373\302A><9\207\275\334\353\255\275\376M\022?\356\277N\276\276\3748\300Y\377\333;\2161\001?r\013\243=\361\342\205>\373y\230=\204\377\362\275He\r\300\227e\024\276\306J\317?\224\346V<\\an=6\311V\277\267\235\214>\374\273\314>\3704\225\276/hd\276\200$?>}\277\'\276c\035\276\276\226\201\\?c>\225?P\277\333\274\371\200\203>\353\352\261=\014##\300@$\220\274\303v\005\2754\226\013\273\326\020\031?vA\200\275\364l\253>\226\022-?\300\355\300\277\357m\002\277\320\037\255\277H\213\257<\247\320@\275\256\326-\300gan\277q,\206\276\355I\305?\320X(\275\315\007\222>\334\274\216\276\037\000\354\275\337\337\211>/\263\225>&\360\351=I\032\007?\310\361p>\353\000\016\300\351;\242\276\3411\311\276\236\342\020\300\231\n\251\277m\373&=\035w\001\276_2\230=\24552\300\316\240\004\277t{f>Z\226k?\223\336\347\275w\265\324\277m\267\177\277G&\204?\210\234\016=\230\377w?Ls`\274;N+\276\257(\032?\332\345\320=E?\204?\335\353\214\275\"\013\024\272\377t\346\276\266\253\323\276\376;\t\277\n>\032\276@\202\221\277\220\2144\277\221\372\363=\006U\316\276\035\177\027\277\252\010\240\275P\214\216?=6\324\277\370\367G\275\302\326\221=\374\271\373=\254\310k=\231\367\016\277\274\337\000?\274\364\000=\276\035\t? @\206>o\327\373\277D?\211\276F\026\230\276\354i8\276\002\027e\276{w\367<\024\334\263\275\270o\351=\214\351\326\276[\023\352=;K\202>Z\365*<W\270\217>\346/\227>\362N\201\276\017\351\203\276\237\355\245\277*N\377\275B\274\266>\320~^\276\003*\266=7\361\270>\250\262)\277\010\036\002\276`g\360>\204\0137\275\274H\316\276\251\337\216<\254 <\276\247\244\242>6+\347\275\336\214\273\2769>\375>\360\215\255>\275\005d?\204C\013?m\032\335\274\r1i\276\245\261\025>\344\202\240==K\313>\223\320\252\276\323\023\026\276\253S\327>I7\362>\026\371\242\276\216\002\010?S\352Z>\203\224\345\275\336\204\026=\217\241F=\2723#\276\274t\310\275\212\257\021?\256\311\366\276\244\314\262\275\306\231\010\277v]\323\275s\202\001\276\005\024\212\276-l\230?\256\001\265<OgG?}\264C?\002\214\336\275~\266m\300\000\017\035\275\017~\362\273\'\021_\276\345G0\277\276H\251>\205\273>\276D\341w?\207\262\027\276\235\250i\277\"\357\003\277\016\2405?W\220\023?\000?f\277\245\234P\275\016\347\257\300\356\001\202>>\327\244\276\341\003h=\266\377,?Zr\360\276\177>\004\277\340\371\036<\2754_>\301\010^\275\177\324T\277\361yT\276\227\003\332\275\031\362\227?V\332\331\275\314\250\230\276\242\241\205>{\031{?\361t\205?\307\"l?\377\243\203\276]\020U\274\360\213\\?h\272b\276\324\245\202?\035s\201\276\247i\241\276\261\360\\?\2301\201>\344\002+\277!!\202\275\225g!\276\0378R\277L\344#\276\366\344\352\275E+\251=\355\354\243\277k\013\241?,N\251\2775,V\276^\265\223\276\\\231R\276\204\304L=p\262\343:H\231\345\275|q\"\276\033\325`>\320\343\373\275R\032T\276?\330\275=n\2376\276B\202\211\2750\2710<\361\033\005>\333\211%>\302A\235\275\000\353C\275\007\210$>N\226\313\275.b|=H\212\377\274\210I\325:s\026\3379T\372,\276\202\313\325\275Ut\353=&\2616=\346TB>\273\023\"\276\346\272\343=\333&A\276y\354L\274\034Te>\037\030\343\274\240\333\026>\000H\266\275\252\334\250=\266\035\272=\003\350:\276\335\221[\276\r\302\357=\311\271a>hf\232\274\210~\355=[3j>|r[=!\2754\275\324\'\007\275\324\004\357\275\376tG\275\230p\321<\306+/>\304\323\206=\002\341.>>\261\204>\02659\274@\373\340=\365\313 >\307\235\333<\226_V\276\235{\027>qCF\275\362\210`=\316\353\027\276/\003=\276\273i\"\276g\251O\276\304\300\235>T\200\203\276\366&\261=S^t\275\364\324\255>6\363\304>\tD\007>Y\203\006@\230\335\016>\035\341\323\274\'\272\342>\330\312J=\317Yc=w\275\233?QJ\344\275\372\314\357\274K\200\301\277e?\370\275\231\221\272\276q\323\t\300\227\210\265\275+\210p\277\315Ga=H\024\264\276\303b\203\277`E\225\277i\315~\276\337\036e\277:\251P<\344m\204?.\377\322<\361\224d?\360`\010\277\007\254 \276z\006:\2779&\010=\310n\356?\224\t\315=\237\225\014\277\205\202M\276\354\020S\277\0066\231\276\031\221\270=[z\361?&\240\357<0j\232\277S~\003>\3631\374\275_\267\243?g\022\241\275E\346:?\363\213\217\276\037\202\220\277\352\003\204>?N\004\275\243\023\177=D]\241<\277AJ@0L\345=.Z\265\275k%\234=\274\0323\275\373\340\'>\343vT\276\271\302\033\2761\305j\275W\370S>\270\242a=\tH\000\276\004\270\373\274\372\206\276\275\330)\023>\006\0321\276T\375|=2\202\232\275v\202\363=\317\356\022>|\027\217\275\246\373\354\275\010\276\t>\263\366\210<!\210\030>\211E\261\275r\'F\275\030y\213\275\212\357\266<\366\335,=\371s\366\275\267\204\220=\330\266>>%\002\301\2751\341\251\2757P\210=gwq>O\215O\276K\273\007>O\277X\276\330\224L\276\270\006\007=\224i\266\275?,\350\275\226F\262=mS\204\276\033ZS>\315\2512=\207g\204\275\022\327\303=\357\364\000>\014\211\226\275CJ\'=\'Q?>\200J\350\273\307l\023\275M\337@\275ks\213\276\014\207\206;RD\367\274d\002\"=\270;\034\276\007\365x>\306F\371\275\010:\223\275K\00369\002}\007\276\217\2605>\207v\234;\303\224\316\275UnJ\276V\321O\276\353R\326\274\000\356\202\274\205\207\262\275\214\252{\275g4E>\301\321\210;;p\001=\270^\321\275\006u\240\275J\020\226\273\234,\301\275\220<\244<8\230\340=*\336\275=\307k\345<\350\271\006\276\342\370\270\273|\370\036>vp\202< :a\275rF1==\360\271\275\025\020\017\274\376?R=&\220\331=\361\007\025\275\200U@>-2\314\2753H\210=ssM>\035n\244=\2558\321=zn\361\275e\023\001\276nAP\276\240{\210=\034\203Z>\352\333\200\275\003\354\321=\010\277\311\273 \363\270<@|\014\275\3208\315\274\340\276\032>:\276\321=\306\240#=4\204;\276\310\377z\275\234\355\323\275\007\312 >\247&D\276\316<\036\276V\350\333\275\224Y\004>\313\314?\276Jk\370=\335d\005=\\\234\232\274\005\267Y>M{\'>\005;1>^\327\336=v\275\325\275\013\026\027>\017\326\021\276\321\0138>\032A\017\275yQ\245=\240\267J\276\035\033d=\305\177\376\275\022X\326\275\010_\346\275\3156\031>\364\310\r=\234B\037\2764\006k\275\331s4>\010\206\362\275\026\307\000\276\270\200\244=\"\267\031\276\326i\'\276F\033[\276p>\212=*\235\255=\376\007\032>\350\261\361\274\371\'\206=\332\022\305\275O=*>]z\333\274AB\206=/s\364\275N\353\354=\n<\375=\016\2357\276\227L$\276S)\026>\357\331\243\275\031R\335\275\266\331A>\264\014\333;?:\341=gHc\276\371\0350>\014\221\007\2763U@>l\337U\276`c\255\275\300\031\017\274\237\3126\276\270\211\035\275\343\262b\276 \025\226\275SH=>,\322\366=*^\251=f\355N>G\372\"=\314/2\276h\244\337=JW.\276\340\340\314<\311: \275\302t\323=G\367%\276\317]\016?\"\345!\277x\331\361<\010\344\352=\2015\205>\356\272@\277\014\342\265=K0\316\277s\276C>a\355\027>_\320\203\277\021\374\255\277@2y\276?#2?\244\000\374\275\307%\256>\rY\303\276\005=\016?\215\025\030\276\332\363\"\277\300\325\260\273,[\206\277]0x\275j\223\215\276\361\023\014\277C\364\215>\3042*?\341O\035\300X\327;>\005\021\025?\203\200B\276\300\2567\300j\352\231?Q\256\214\275\331\244\205=\373\000$=\267\036\213\277\266\261\005\277\266\t7\276\005\377W\2757\240\324>qi\001>\302\377E;\246\365\320>\001\344\r\276g\036;?EH\324\276\224\2364\276\2418\255\276\222\264\241\276\030\034\222\276\327b\241>`\341\275\276\r\365\023\277t[:>:Q@?\271{\t\277x\371\032?\315W\230>\005\236\236\2779@\021>\033\317C\277k\304\234\274t\350\201\275q\231\253\276\206\354\022\274\275\204N\276N\245\273\275\311z\246\276\373\020\025?\276\225\273\274ez\217\276P\213\362=\240\0053\275U\344\325>\352\351\n>E\212\"\276f\004=\277Dv9=\303\356\362\275\327\005\363=\377\255<\277O\035*?\177=\225>\"\3267\276\037\343\257=\002]G\276\341\367#?ib\206\275\254\362\201?_\327\321>EG\213>\344\016\256\276\364p\027?A\360G\275^L\002\277\361\312\t>\204\035\035=\374\353\252\276\226F\017>\265\003^=\272^\212?\261\024R\276x\007\001?\031\005V\277\227\037\331\276\027PJ=\034\212\226\276\271\327q<^n\020?~\211-\276\007\245\020<Si\035>\314\213\264>N\267T?\301\347\"<\200/\353>-sH?\233\327\301=\212\303c>ELl?w{#>\250\375\225\277\224\354\224>T=\265\275\274\356{\277]7\007>\240>\332\275\031W\035\276k\024I=\032\255\205\275{Z\360=\002\315\274=\221\204\242=\316\275?=\216\264\\=\344\010\007\276\200\372\016\273$\320\">3\232\244\272\376\222\230\275H\323\034\2762\242\005\276\311\300\343\275\345\t\203<(\tK>\236\325q=\235{\245\274\3202\001\275\356\013\225\274\236\353\n\276Ma\361\275\341Xz=\002\365\006>\324\332\236\275\362\253\023\276\\\371g\276\247\030\317\275\276h[\276B\304\026=a\243\230\273j\362\035\276h\023\256<\373x\343\275\340F\007>&,\023>(\233r<x\231g\276^\021\033\276f{\262\275\2156\276\275\201\330^\275Y96>\250\276\027\276\334}\030>\260\367\205\275\312\031b\276\000\306>\274\036>\370=\305\334\302<\267e#\275QrZ>\340\333\314;\2516\267\275\356\n\273\275\255\261\035\2760\225\214\274\366\326\370=6\"\303\275\263e\230=\330\014\224\275\013B\272<\304\032A>\034`\243\277\034\003W=\215\331L?5\'\010\277\034\257\234\277\326j\014>\323\263z>\345\007\034\276\022\306\016\276y\261R\277\322=(\277\275\227\001\276\346g\311\276\213T$>Lj\027\276g1\247\277:\204\003\276\264\025\'?\221\"\274\277\277\3359\276\263\030\264=k\211\213\276\3065[>[-!\277v\245R\276\265\030\032\276@\233\r\300\034\036h<{\002\204\277\251\\\247\272Ni+?\233\035R\277\231OW<\360W\235\276\237>\301=\373\210\021?4\305\026\277\247\276\037?\224\263 \277\317\273\211>\355\356\243\276r\301a\276\227\367\013\276\271\027\\\2765\260\206\277\365\373\023\277L\377m=\244\234+>pI8\277\224\007\263\276\021\010\016?\026\265\203>\252 T\276\3320\300=T\026\267>\311\'\271\276\343\036\211\276.7\353>\324\215\017<\306\272\020\276\345S\210>\031oa\276\002*\340=\204\267\277>7)\215\276\233\320j;\354\356\312\275 \014B=\370\214#\300\210\217\223?tR\356\275\376\252 \276\237\026\345<\250\211&\277\233\370k\276\233\257C\276\302\336\232=\034(\t\2762\034\216\276[\253J\276\312\217\215>o\341\246>\3716\353\277\034m\030>\220h\216?yt\037=S\266\006\277\243t\223\276Ag\220\277~P\244\277X6O\277\016\241\317\274\035l\251\276\310I\331\275\362>G\276],\016>zF\004>,\216\016?\333\210\251\275\241\262}\276Z\303?>w\216\276>\231\236\257\275\253B!?\240\032\346\275:\3206\275\313\020\204>zN\004\276<\265\300\275/V\236\276\346K\014>m\3454\276.\326\264\275\nJ#\2778\355\002>\017\205\266\276\020y*\277\222r\001\276\200\275\r?i\\\203\277\035\277j?\277\264=?\246Uy\277\302z\025<Lq\031?\337\221T>\310|\335<\245\003\263\276\225\310\234>e}\250\275\337\013\255\275\267\255\321>y\325\037\277\005\360\220>b\337{\277\307\"v\274\215Q\345\275H)(\276\260\020\320\276\222\240\310<\n\253w\276\251\376X>P\362\241>D\014\010\277\353q+?\336\027\227>\007\340\376>/\014V=1\242N\277\314u\206>\357\212r\275\016E\225\276\374\241\334\276\300\006\t\277*\250\345\2762\226\223>9u-\277M\373\216=Ei\201>L\220L=\312\207o=G\362\314>\355\035\331\275\032Rk\277\333\320\013\277\006g\037\276\357U\226>\237 \211=\237\357\007\276;\270\226\275\004\356\377\275\035\321\304=\225\226)\277a\035\271\276z\302\'\276\314\316\256\276w,\317>\263\254\031\276\\C\032?]lP?<\325\027\276\371m\260\275;\323j>Q`K\277\303G\332\276\022g\205>(\265\242\276+\232\256=.t\337\276\317q\305=\374Oa=\300\204}>\2368F\277\'\344\202\274\002\366x=\337\261\363\276\252\364\204\274\210\315\225>l\326\000\277\261U\010>\336\354\312=\364w\t\277@\266\370\274p\261\006\275\2611\216=%\375\334<r\365:?\234\'\225\276\021\327\306>\010i\305\276\332w\336\276(\363\331\274\0175\247\276\306\204k\275taE\277\\/\237>\333\353\t\277\21238\277\242\206c\276\317m\025\276\331\220\024\277\030\377\026\276M|\032?\270\357->\024\217`\275\204\311o>(mQ\276\003\357!\277\230\210\270\276rf\243\277z\360\025>\350\354\024?#RN=\356+\002=\034v4\277O\347>>t\\\246>iD\036>\342JH\275\177\363\326\275F\242\211\276\t\353\343=\260\025[\277E\310\260?\021\374N\276\323\021\353\275\241$\346<\000\305l<\334\326\r?\225\260\304>\343\211\227\277zE7\275=\266\033?5sD\276\367\2675>\352eu<a\021\320\275\3117\">\005\243#>\346\221\262\275L5$>\'\245\225=\352lZ\276\330z\316<\214|\031\275N\226\031>d[y=\374\024\023\276\234\345\302\275\334\034<\276b\250\023><1\'\275s\3136>\304\316t\275\340\354d>{\356\026\276o\303\\>u(\222\275.!\364=\334\001^\275\233m\034\276\244\271\245=\262\216\327=Y\326H>\252*\264=\340\317\265\274V\001G\275\371\t\035\276c*7>|\022\263\275\264)\025=\206w\305\273\252\370\367=\252\356\n>\322\3546\276\311GL>_\002\340=7\3542>zi\023\276\256V\235=EU\034>\312\2346>\364\005\246\275\252\033\277=^\004\375\275\220\341\202>\346\264\177=\255N\350=b~\341\275\326\251\375=\027\352\020\276\334\014\032\2768\300\034\276\340#\342\275\342[=\276\2139%><\335\t\275\212w\312=\237?W\276\364\360\374>\377#\000\300\340!\365\275\362\303\242\277\265\"\223\277\177\242-?\345\356{=+N\n<\017lg=\215.\217\276\353\260\"?\030\001\304>\260}\035\274\334\225\003=\354tV\274\343/\024\277@h\t?$\276\033\277\240|\237\276\264\237\314\275\030\310 \275\250F2>-\350I\276Mi]?*V6>\243\021T>\223\\\367>\372c\026?v\331\277\276.\020\227\276d\232{\276\372\311H?\245oB\276\240\237U\276H\353\005\300=\275\227=\355~s=\004\3768>\207\223\271\277\230\2643\277\333\313\357\277\337\326\325\276\225W\r>\320\227\310\277\312\261\235=e\334\223\276\372\235\030>\006\370|<\0068\257\277\001\253\202\277b\342s?\273g\212\277\340\027!?\356\343\205?\365i\350\275w\036\356=\267\321\366>\326\240\223\276\363\375\004\300\3454[\276\017U1\276\006\202\237\273\207}[\272\367\273^\276\007kr?\214dA\300\020\215\341<\206of\277%^F\277\372\377\377>\360\315\002?B+\347\276\202^\264\2752\227\020\276\263ho=\030\253\000>\'7\262<\361\021\351>\366Df\276\333\346\364\276\276\0134>=\027\n\277E\0142\277\300Z\204>\255\242*\275+\000\366\275\213\232\324\276\321\343\r?\230\'\277<&\231w>\306\225\313>\371\013\262>x\365\005\275\201\254\212>\340k,\275#w\261;n\252e>\274!B<\200\274\371\277,\216J\276\253\030\256\274_zG;\330\000\215\277}\036x\277\271\n\243\277\361\374\024\276`\345?\276\332\033\221\277\210z\r>\3443\241\275\251\276J\276\255\030(\275\267\267\334\277I\334\346\277\261/f?\257\207\332\277\3029\353\276\r\320\032?u\343\322<e\200\315>Z\377]>\240\245\241>tw\022\300\014^+?|\2748\276\033\223Z>@\324\001\276\020\327\254=\215W\022\277\025\324\035?\343\037&\276C\253\037?xT1\276\227\005\025\277_\245\353\276\342K\350>\274\3651\276\3326\312\273W\222\217?\0303\240?E\260\254\275\210\222%\300\376}O\276w\251\256\276D8\236>0;\200>\317\177\200?\372\302\322\276\305\342\200=?\366Q?\'\0169=aMP?35\350\275\244\372\341>\370\225\235>\214E!?\311\263\317=\367Ds\275N\265\031\276\001\246\243>\026.\223\277\360\237.\276\346\321\006?!K(\276\237|5?\246+\301?\326\030\330>-\376\235?\177\3115\276\210a\260=\242\027\021\275\"\355\212>\322\352\322<\350/\033=!m\271\273p\233a\2768\326K?iu\014?\213\217\355=\006l0>W\205\240>\033\303-?\003\016@\276\244F\232\276TO=?f]\253=\203\007\347=m\2305?H\230\031\276\224\350\207\276\230\307\014>\253\223\240\275\322\370R?\n\316\225\277RJ\021\276c\310F<\3258b\276\302\254\n\276\036*\017\277\014N9?\310\330^\276\016<\t\276\302\205\364\276\344\372\303\275\306\335\023\276&\206\276>\202 \'\276$\343,\273\250\237X\276q\260\004\276\370\034^\277\025\205\240\277\2015T\276\216\221\263>\241uB\276\317\024\335\276\304\342\217=\350\301\337\276gr\003\300\301>\215\277\273\031\304\276\324\013\n?7\322\332<Z9\214\277!\301\001\277\270NJ=\331\277\221\275v\252$\276 \315\014=\345\373\211\277}\203\367=%\342\344\277\371}\256>F\003\237=\037^\265<\274\376\251\275\2010\270\275\021\354\201\275\306\036\203\275t\276\317=2\366F\277F\027\237\277\n\243\203\276\r\227\'\300\313Kt\300DS\375\275]\0318\276\206\347A\277}\030==\201\001\227=\006R\373\275\252\217r?\241(\247\273\006x\361>\017C\014\276:\263\213=\212\347\366\275\251\265\356>\376\355\234\275\272\004\241\275\321\001\216\276\354J?\277+\001\271\277\252\342\210\275\244Q\272\2756\313\223<0{4\2771!.?\246\327l9E\373\374\277i\254\007>\341\374\244\277\276v\236\275\2205\361>\",/>~\007\374\276\"S$\276O\030\353\277r_{\276\312\212\263=7\267\000\277\232\252z?\372\244V\277;\212z\277~\321\324=jn\356>\221\360V\276<\212\021\276\r\3355?b$\221\275P\364\330=;\231\005<\007\324\317\276>\273\274>\372\312L?\003\371\327>\327\220\r\277?3\033\276\333t\272=j%\204>\020\277\267\274\365\333\204\276\246\305\305\275WXm\276B\033C?\361\222\022>\016\226\246\277$K??\250|\273\276\226 \302\276\235}\277\275\341\250\016\277g#\013\277\315\223\004\277P\2072?C\225:\277\31461\276\311z\240=x#R\276\234W\006\276\215\250\032?H^\361\276y\353%\276\276\354\030=@\303[\277\334\024\243=\207A0\2773\000\314>m\210\254=\022}0>]K#\277e\223\271\275\203\257B;\224\261\370=\220g\030\276\240\\\030><\000\002>5[\346\276\355\3014\277<&w>Pf\215\275hSu>A\247\325\276=:\234\277&\023\221>MD\016\300\376\036\352>L\321l?0\254\"\277gPV>\303()\276\363\222\235>ZdU>\345\235\332\275\316C\304\275=\332\\=o\342\020>\335\353\242\276\010R\216<B\242\271\277\345\301_\275\375\275\266\275\342\251\205\27666\236\276\214\261\354\275\225z\204?\315(\357\276\305[y\276\264U:\277\311F\300\2765\350\370\275#r&\277\355\275w\277\023\256\345>\335Z\006>@\227[\277\177\020\312>\201|\206\276\266\236\031\276\366\342\273=y_\016\276\255j\327\276\351\316W\276\201\260\243\275g\265\020>\231T\221>\307\377\301\275(\253\230\277a,!>\355MT>\223.\016>\321\273\026\275\340a\024\275B\n\242\275\266\236\277\276\004\245\310=\030 \023>n:\013?\260\206\032\275U\236\235=\n+\362?\303\215\232\276p\306p\277\3366C\300u\220\250\275\213\264\261\277\365\366\001;g@1\277|\332\263\276pia?\241ET\276\177\001\034\277\324\350\372\275\300A\025?Pm\325=\3044\215\277\232#\033\27782>\276\032\222\321\276\210\325\360<\000\347\350?kja\277s\255\363=M\326?\277\340\234;\276/\332K\274\n[K\273\256Q\326\276\232\354+\276\237\351\324\276\324\320\031>W\376\002\276\251Zn\276\034\2161?\002\323\314=VPA\2767y_\275\233j\321\276\224\264\030\276\343)T\277\227\001\277>\370\005\317=T\257\234<\035}O>v\353&\276\022D\227\276*\023\247;\370D\363\274\364&\000=\250\023\370=\373\rH\276I\3271>S\230\345=\351\203R>\205>\025\276\222/\022>\025\341V>c\254\n>/\253X>;#\301\275\034@\014=j\220\233\274\254/2\275\336c\345=\275oA=1\312\206<\240\271k=\014\307\000=0\002\250<\037\236H;j\"\016\276\356\t4>\326|o\275\323Q\006\275\325\247\270<\371^k\275\021\347x>\025t%>\330*\356<\371!\'>^\301\360=8\247\247\275?]9>\"\022\373\275\345I1>\312\277\031\276\326\351Z>v\376@\276\376P\301<\361\353\">\252\013\202\2756X5\276\300\321H;\276^\'\275o\034S>\020P\233\275\204\010L\276\0056\252=\361S\t\276\334N\357\274\302\263\006>c`\367\275(\023*\276\200\002Q\276V\0372>\333\243\\=\200\004\010>4\276.\276\247\302W\276M\207\004\275\246\337\226=\346T\016=\371L\360\274\316?\226\276\372\360\017>\023)\013>w\205\322\275\310g\237=\305\276\035>\016d\352<\215U\"\275\027\366>\276\230\226\304=\021\207\302\274\025\314j\276\203\017\273\276\031)U\276J\261\314=\356\345H>\031\n\037>\226\241\315\275\"\201\363\274\014\241_\274\236\024\r\276j\352\035\276\237J2>Qh?\274\265\226\024>\372\227\250>\220\351\251>i\235\252\275@\245\254=k\370\024>\037\220}\275\254\274\315=JTN\276Nfu;\341\311\317\275\341\3633\275\252\260\201=W\305\377=\223=\300;\024\032I>m\2634\276Yh\014\276\262s\036\276\251#9=\210?Y\275\005\013`=\321y<>\'\370-\276[z\333\274Z/\246\273\2373\036=~9\005>\236e\260\272\270|\322\274\345\226,\276\332\267\327<\346\326\203>{\240\235\273[\352\317\276<\037\025>\'\360\024\276\205\303\023>Y+*\276$\242\365\276\tc\255>Ql\034:\346\214\213\277qP\"\277\353\236\354=n\213O\273\370\266\202\277\025\313\343=\274Q\347\275\014G\224\275\315\211\262?5\234l\276\306\t\202>G\375\003>\377\361\357\276\350\370\347\276\203?9\276\027M<\276\223\230\023\300\255\006=\276r\273\002?\237\000\024\276\305wL>\335\243\\\277\234\263@?~\250\002?b\025\250? \026\264=\177n\276\277\342\270%\276\226 \344\276+\263\223\277,\247\026>\345{\035?(d\321<Co\356\277\025u\216?sx\370\275R\276H?\240.e\275\316O\236<\336\301\n\274*\266\336\276n\223\203\276q\343\030\277\202pz=,\306\032>\254zi?\340K\037?;\372\004=\321V\\\277\235JK\276\212[\001>\023\010o=\335\365\\\277\361(\221?\035\r\211?\373]\024\277\033\276\201\275\336A\246\275\305\272l\277\246@\275=\267U\026>\231\224\254\274\034\271\210>?\322\037\276\021\344\247=\322\3712>\r\307\206>k\355\322\276\314\2622\277\\\336O\273wv&\276\243\210}>\231\\\240>\32538\276\no\207\274\027\342\226\275\357\3203\275\336T\036>\316\207e=\2178t=\003R\255\274[\r\220=;\351\361\275\377\306\312=\235\226\003\276\334\333\267\273\341\303i\276|<\202\276\242~\202\276\204B\333\275T\241\344\276\344A\364\275,\365%\277\230*?=\003JY\276\253\342%\275\006Z \276\033$.\276y\317\206>\354\234G\274B\036\261>2\205\242=\302\001B=\322\355\221\276-\3635\276\000\240\355=t\377\003=\230\037J>\261I\010\276#8\223>\010@\315\275\033yc<:&\223\276\316\222V<P\330\250=\341\226\036\276\210\250\003>)\033\242\276\301#\002?_\221\"=\276mL\276Q\347E>\243\234\204\2766\306b\276\237<\271\275\026\236{<\350\014\272:\204![\276-\233\n\276z\265\037>\014H\256=O\364\272\275k/P\275z\025\200=K^\244=\275\273\346\275\364\263.\272\316\032\\=@\321q\272dd(>\240\302\251=\331\016\217\275y\373@>\372S%\276N\0042=G\277\326\275\364[.\27651\304=\230E\326<\005D\364\275\3235;>\247;4\276\300\253:\276\223\254F>0\350\231\274\256}\020\275\313u\316\275\243\025>\276\342\014\340\275.\032\221;\2727\277=Z\246\365\275\261`M<n\236\205\275\212\373:\276\311|\262=\317\"\031\274\023}d\276\222\010\177\274\275\016\221\275\310\006\361\275\331\343\357\274P\033\033>6\205\007\276\365\251\220\275\366\336\332\275Z\221*\275\327\374\346=8\267>>O\341y\276d\361\321\275N\013i<\213\321\311\275\316\017A\275o6.\276\372\264\341=\200\271\372\275\000J\332\271\240\346\376\273\014\200\247=\027\223U>\326\212\274=uPs\272\252_\226=_r\276=\304w\346=2\262\223\274b\216\314=\345\343\003\276B\304\031>\330\207f\275G\000\372\275(\352z=Z}\337=\'\261\235>\324\305,=\023\304\325\275\251Um>\243\373\022>\3748F=\325B.>W\333\030>\007\342\206\275\300\027\301=&)#=\324?\007>\362P\361=\223\346\250=\271\\4\276\265L-\276\260:\207=\016\216\311\275:[\001\276\370\307\350\274\354\341\r\275>\270\224\276nMM\276G\237P>\260\276\010\274D<,\276\0048\267=`\3034\276\242\374(\276 }8\275$\233\221=\013\267\324:\367\272Y>tsp=\301{Q>\273\222\240<@1\270\274\201\014\346=9\247$\276\364f\002\275\030u\262=\020c\021\276]5\256;\350\363\312<\230\020~\276\006w\312\275\r\203\323=\370;0\275\020\337\374\274\205\232\216=?\201\027>\204\224\034\276\344o\221=\267l;\276/>\031>\2126S>\'7\366\275P\255B\276\356r\261=\235S \276\r\211\037>|\036+=\225h\034>\260J\301\275\226\241\336=\247\316l\276\025cC\276\307\312&\276\014\311+\275D|\030=VC\336;\224I:=\347D\305\274\000\337\025\276\212\214t=\250C\231=$e\030\275\032\204\263=\207\221\034\276>\251\357=\221\223R>\261*J\275\340\367~\274\307\343G\276\222\326\274=\375\234\342\275\236\343\316=(\244\201<\000\001\255\275h\316\204\276=\230\003\276\032\251\242\275\333\006A>aq\014>n\234\021>\020%t\274\245\265<\276\374\3230\276\\\374\014\275\\i\361\274FOI\274\306\365U=G\212a=Ph\344\274\306\351\247\275\372\315Y\275\345Qe\274k\251J>\363\240\314\275H\003\215\274P\305!>|\255\016\275\234eC\273\020\204\007\277?5\256\276L\367r\276\3474I\277\215\310z\276\265\215\277>o$\007?\361\351\270\277R\253)\275]\276\325=\262c\010?\301\027\034\277\312-]\275\220\341n\277\272\264Z\2760\266\000\276F\202\231\276\317\004\217>:\334\273\276M\255Y>b>\214\2749\375B?B\022\"\276\214\311\306\276H\n\353\275@\303\002\276\267\005D\277O#,>\300\004\202\276\3258\253\277/\n\205\274\txH?X\360=\2760\364\355\275\250#\342>0|R\276\215\372\231\275\201a\335\276\3212\261\277\'\207\246>u\246\030?2\214\347=\312v\263=;\274b\276\007\350d\276k\340b\300-p\241=\272\267Q\276u\261\240>~_\004\2774\334\355\2762\341\003?+Ji?\226>\331\275Q\232Q\275\014\233\r\277\022\207\213\277\301\257\r?\246 )?\032RS\277&\301H\274\356\316\233\277\373\340\200\276\010\214O\276\353 \322>0\200\340\276\r\270\364\274kN\243\276z:\032\277c\376\023<\034\222\200\276\227\2645\277\\\205\214=\314\202\267\275\215\310\305\276M\314M\277I(^\276\340x)>\303\333\006\2769\346+>\336n\247?}\356o=Z\360\276\276\001\t\010?\3144(>s!4\277\304U6\276\272\026x\274\004\204\232=r_\241\277)\331\231\276\357\025\005\276\330\206\273=^ \300\276C\265\033\276\235\245T\276\321\217\277>\261i\211\273\340\232,\277\003\327\275=\246\001\017\277\r\274\"\277\233f\013\277\216\036\206\277\342>!\273\272|\266\276Q\177b\276\3176[\277\345r.\276q\023\246\276;\352J=\007\006\326=AE\254\277\241\260\027\277\355]\353=\037.R\277d\032F><\237z>\260\304\013\276\374\223\210\277\177\372\320\276\024h\355<&\266\026\277\374\323\006\277<\341\235=\366\235\215\276|\266N\276\237g\362=\227\225\340<=\322\024=\365\006c\276)\320_\276\241\005?\276\251\240\027>^\260\252\277\025\231<?\002\313\351\274.\353*\275\323\364\353>Z\037\010?Bls\276\372\021x?\027\306\333=\251\330\230>`\215%>\345g\216>\266\256l>\032WC\2773\020\262=\244\272b\2770\234\245=\372a\370<\266\205\272\276\023\362\240?p\345\326\275\022\260\254>1_*\276\336\370f?G\t\224=8$\315\276L\313\304\276\231\032\310\275\276\004b>\021;\022\276\336s*?l I>\236Xm>\302\216\274>\271\361\033>\035<\212\276\355I\031\275\201\016\021\277J\205\210\276r\310\222>\235-\335\275\315\304\257\275\273\320:?\255\005`=\225d\276\275\323hT\276\207m\200\277\266\305\005>\215;\334\275n\021\006\277\036\254\002\276+\342\273\275TAj>\336\352\033\276%.b\276\347^\223\273l\271\355\275%\373\273\275\342z\023\275\036\251\304=\305\322:>\036B \2744\177b>\335\250\030\276wP\335<8a\210\276y\\\225\273\221\236 =l\031\024=p\307b=L\204\211<\241\\\373\275\221\244&>\374g\030\276Z\303;>#\214i>\'\303\203=CK\231\276W\364\304\274\307[\000\277F9_>C\304\334=`\332\330=\360\2061<\307\214\311;\312\264\315\276\340\tP\275\253\211\265=\270\360y=\034\255o\276\0338\275\272\tYq=/\243\n\276\244\247;\274\257\322\371>\203\252\216<\225\330\274\275v\214\311=\214cw\275\334\211\013\276\330\320N=g\023\254\276\277\303\010\276a\303\320=\352O\224\275*[\374=\247S\242=\376\220->\271R\270\273t\0234\276=\372\241<\202\300\267\274{\326\233<De\035\275d\373\r\275K;c>\217\005\003>\372H\335\276\021pM\276\232|^>M+\232=\026\034\030>\345\030G\274\267\277\243\276\244uN\275\324n\347\276\274\304\214\277q\323#\276\331t\271\300>f\230\277T\315w\276\375?\006=(\275\323>\331\221\366\276.\033E\276/\253\350\274\347\277O\276\367\003>=\230?\347\277\272y\003\276\274\304M@\322o\025\300\342\322\344\275\035\020\234=\311\002\345=\\\215C\277\245\231\270\276\017c\\\277\303+\005\2776\026%\277w\215\346\274w\241\241\277\346bF\275\020\271\307>\304\310\331\2768Xx\275r\254*\300\254\177]=\347\362\236?W\374\232>\316\201\337>\327f\023\3009D\207>\376\267\322<\003Y\301=\035\377l=t\203E\276,\300\266\275\3717 \275J\003a\276AH\313>\372r\014\2774\242\370>\311b\321\277\010.\371\276\220\243e\277\230,\314<\255\332\316>|U\376\276\272$\005?>\375\014\300U7\315\276\232\305\224=\001\312\305\277\004\323\347\275\021HV\276\346\222\254\276)\243\030?\256-m\275\213\272\027?X!0?\315\304M\300*\266t\277)E\224>z\204\t>g\226%\276\336,\031?\310\327_>r\'y\276\t\305p\277p\357S\275\243/\254=\331Y\310>A:O?{\3373?\006\027\216>8cg\275\177\030\266\277v\037\253\275\272\020\335=\351a\260=\253\022\020=\031\223&>\252V\025\300\360\251\232=\r!\007>Q8J\276\016c\356\276\306;U\276\245\355?>\377\2523?\327e\230\275\256x5?\212\350\326>\034H\030?\371\241\005?\236\255\322>\302S;\275=^E\276\250j3\2737\302`\276\240\211a>\377\317\254\276c\213\305=u}\227>\026i\013?-\343:\276Ok\334>\241\251\240>R\242\240\274\327\351\267\275w!\326\276u\273\212>\374\350\304\276\201{\014?\205\210[=\037\270\001=\225\367\004\275}\340\003\276KjE\276\236qH\2750\302\301=,\352_=.e\022\276\210\360<\275c]\316\275\331\000\212\274\255v\356\274\000\256\374;\270\213]\276\006G\020\275u\220\320<\375\\\356\275\373\240\263\275\213n\007>O\320r\275w\211\034\276.-\264\275K\220B\276\363H\202\274\276\225&\276\321\001z<\206E\370\275\272\325\233=\357\333\247\273\213n5>v\275\377=\306\231t=\251\021\237=\207;\243=\212\241\021\276\014l!\276\330BN=\035\201\020>\263`+<\206X\235=w_\266=\235\017\334=\201^\203\274\245\010\277\275\374F \275\177\304\215\274OTV\276\226U`=`\243\321\275}\362\232=i\207\253\275d\3777\276O\222Q=\214F$>\316\366\377\275\362\245\277\274^\366\275\275\003\260~\275\246\354\351=\'\216#>\360Z\205=R\343=\276\277\205i>8\301\031\276\202\230\027\276\377H\323=xp\317\274GC-\276J\005\017\277\216\213\375>Y\257k\276`\014\321\275\227\247\276>-\312\246>=m\341>\355\323!\277\026}\273\274\035\010\023>H\201\t?r\205\031?\241\226\034\276\024;\224>\016k\345=\264\264W\276\360I\363>|\363w>\266\274\245>\001k\312\276\253M\002\276\2159\000?I\344\375=\204\002\336=\225W\340\275\203\017\346>%\262I?ub\213>\223\363\237\2759\272\016\275f\237\222<\024\240\214>\262\232\320\275p\353\220\276=\261\317>\342\275e\276\260-\222\277\221\375\010?\200\332\330>\351\216\201?\341\377\340=\272\363V\275;\003\311\275\003_#>I\364\366\275\221\035\226>\276\374\242=\313\352\221\276\205\006C?\241\030\316=\001\035\211>\230\276\332>=|`\276j\201k\275\254\027/\276\361\357\264\275\3555\007?\214D\212?\207\374\224>\243<\272>[\345\211\274h\201 \277Oe\266\275\025+\004=\002\\\320\275M!\014\276\320\353\207\274S\231x;\340\362\312\275u\356)>JoE\275(2\022\276v\261\201=71I>\214^=>\003\256N=\214\025#\276_RH\276\000\324[;\016\244\217\273{\314\024>W\n$\276\031Zq=\030\030g>_),>$\257a\275\370\362\356=W7\243\274\220:\033>L@\014\275=\317=\276\2315*=U\311\207=\021\334!>L\234->:\360 \273K\254m>\206P\277=N\275\022>\347\211\024\276\006\306\332<<\244\023\276y\342\023\276\257\t\301\275\221\000\265=\343\277\303\275\007r\n>\021\262\314\275\231H\244\275D\276\277<\360\215\307\274`\374\216\275\331\236\217\275\372\377\212\276\237\225\243\274S\354&>\336&\n>\0276\354\275\312\251\031>\273\302Q\276\350\275\234=Ao9\276\202\224\032\276z\202\321<\227\035k\276\261\234\206\276\327\206\016\276AQC\273\003\210.\276\310c\233?u\262\350\275\331\322\326>\003P\">\216!\023\277W\001\362>\377\203&?~\024\275<\242A\010\275\273\240\226>\270\322??\201?_=\003\022\023\277\212\tp\276L\305\236\276\010\342\000\300]F\377\275\010:\n>\267\312e\300\234\034u\276\005\356\214\276/\375\003\274\033\0051\276\345b\256\277Mc<?\311\331V?\257\343\202?/\300\347\275\320\330\276?AN\002\276\332\251;=*\311\305\276\204\367\245\275\2172\334=\t\365\037\276n8P\277C?\314>\026A\255>%\263p>\017\352\221\276\373\316\225\276\353 \221\275\211\251-?\302\323.<\210!u?\267lE\276\370\254\207=?\355\270?\353-\322?\034\022\357>\3056\220\277\263\337\376\276,\341\242=#\307l\275\006\010s\276?\206l?\227F\351?\022\317\365\275\300\303\005?\373~X\276\360**\300F#<\274\256\306\222\275\350\324\312\275\220\331\026\276\200\324\234\274\221\235\'>\277\247\035>\366\030\375=\224]A\275\2663\374=r\372\376\275u\227\302\275 \244\024\275\346\346\006\276\211\365C\276P\233\025\274\000\325\232<\313L\001>\200\217\376\273\326\212\332\275@d[\273\214\271^\275\034\032\r\276\224\3242=@\220\202\274\200\354o<*\\\313=PJ\307\275x\350\033\276 \222%\276\342\254\217\275\264\2074=\374]\255\275z\200\037\276\360\311|<\354>#=\004\000:=\211>\020>\276\341\366=\010g\006\275\336\320\227\275\375\256\356\275\360\010\315\274\3169\243\275\030Y\250<)\211W>\312O\335=T\276h\275\334\3077\276^f\366=<\253U\276\375L[\276P\227a<\013\\ >I\2009>a\233Q>\000;\270<\200!\273;\356:\237==\367\004>\270\273\355<_\3376>\\R]\276`\352\034\274\320\353,\275\032\003-\276\334he=\344\317??\260}\364\274\243\357\212>\263*\275>\223\247\251\276?6\236\277\212\031F\276\375$\\\275E;\"\276\251\311Q\277\33161=\276=\316=\273\337i\277\tNG\276\204>A\277\273\033.\277#8\177?\322\256\t?\212\302{=\377/ ;\n\214\321\2779W\r\275\275\262\314\275\323\362\261\275W\235\260?\257\272d\300\257\2717\277\337\334\303\275\205\035\030\276\333\023\036\276\362\033t\276\214\221\005?B\341\013=]f\034?^\313\266\275c\341\305\276\254\244\242>\335\353\315>\232@-?f\327\213>)\240\036=\355\005\'\2761\321.?o\001\224\276j%\363>b\327\002\276\350\356x\275\250\361Z?\271=R?Y6\311\276\267\222\277>\n\220^?\t\342\365\275\340\030\023\275\320\323W\277l\327\034\277w\210\335\277\345\226H?\026\036\222\276O=\010\275\\t\362>\334F,\276fe\342\275W\351\331=\017\205\016?\244\225\270=\032\025\365\277\031 ~>\232\334\336\276^g\004\277\250\327@\2774\352(\276\241\2560\276\016~\260\277\326\222H\276|D\355<\351R\022\276\206mg\276t)\001?\260*\221>wA\272>\355\034\232\275\'\215\264\274\270\337\"\276\215X\024\300j3\030\276\025\202\256\277\225\037\243\277\302\226\235>\221V\217\277\027\301J\277R>\031\276\350>\014\277\375o\210\275\255Z#\276\332\207\355>\305K\223=\304Q*?X \214\275|-B\277\320J\013>\227-S?\t\246\354\277\0316\341\275\352\341\006>#e_\276\374D\025\277V\326\213\276$0b>\t\332T\276\002H\256\275(\207\026\275\316\t\005\277\240y\307\276\217`\253\277O\366\037\300\3442\231\276d\213\220\274\345P\227\275\024\026\352\276\030U\240\276m\200\200>]DR\276~)0\276,\340\t?6UP\276D\236*>g\305\321>\013\014\310\277\r4\032\274{]\236\277\226\222Q>X\314@\277\251\333\326>J5\000?\036\377N=W1\365=T\307\002\276j\2071?\321B\211:\211rO\275\240q\303\272V^P\277\216\020\301=E\231\007\276Y&:?]\033\003?\210\220\301\274\332(&\277\242\202d\276\237\333\366>\321-e\277S\254\212\276\222\221\273?\017\300$?=+\002>\010EB>\201G\220\273-\337\335\277\277\235\266\276i\340*\276\037o\202?\230\243\372<6b\003\27775\231?\0316\030>\277\001\023\272\212&\302>0m`\276eVU=\036\250\"\300Oj\250\275\267\026\031?Jl\321\275\004\231\005\276\231=\014\275S^d\276\232 \236\275\337\"\341\276Q\203\000@\201\014\221\276(]\251\275\010\225\204\276\030hR\276\317\323\031>\200\241B\277\033| ?N\nX\276\020\260:\277nK\216\276`\037\333\274\211\204\301\274^\314Q=\234{]\275\354g\244=\344,L>\301\304H>\323\301\014>}\306*>?\3623>\036\240\340=\3762\314=\371o\r>\3423\277=\272\227\254={\374\022>\213g\336\2757\303/>6\306^\273\234\256\372\274\272\021\255\2750x\206<c\004\221=\233\241\037<\330Jr\275\363\310\316\275?<M>\367[\270=4\255^=n%\030>\313\364\205=\333\264P\276\345\200\203\275=k\014\276\000\211\347;\032\227\t=\370\206\325\274Z\"\242\275M\312{=\024a\006>5\347\035\275\r\034\020>\241\2142\276\347(S>\334\253S\275\344\356\030=\273\250\020=\311\332\267\275\000\350\2228I\215>=f6\351=\220\314\235\275\023C0\276\014\361W=\320\027;\275\212\225\273\275\013\223$>\314eG=\200\321g\274{\250\273\275\004K\031>*\024\036\276\267/m\276|\257\005=s^T>w\350s\274\367\371\250\274<\266D=\r\311\036\276\204nT\276Y\321\315=M\037\031>\244\024\357\275\217^\034>\230~\260\274\031F\307=]\326A>\374*\035\276UL\330\275\2171\323\275\303\260&\276!>q\275\305\261\236=\211\254\320\274\304\036/\276\226\017\303=\224}\'\275#-\023>Y1^\275(\310&>\3765\004\275\025\313B\275\3445\302\274\336\233\367\275/c\274=$\324s\275d}*>*\257|\276\264\222T=\033\305X>Z\371\353=7\221\316\275X\254\377\274\346\2502=|hq=j\303\232\27571G>\370\037F\276H|A\276\334\207<=J\337\354=\332\033}>\002t\200=gy=>\322\231\252=\231\363\235=\253KZ\276\036FD\276\356EG\275]\032)>>\275\343\275\222\324/\276\025\243\304=\310\202 \2765M\013\276t\360s=\177*M=\365\336<>/\321P\276^\200R=\366\262\231\276\255\'\024\276\0200\261>\321W\010?\025~\343\277\350\2241\275\243\237\261\275\237:\002\275\303\356t\276\246\221\232\276\266\014\002\277IN\212\276\023B\013>IaV>\275\347f>\177\242\355\274\260\221\244>9+I>\2707\235\276gy8\275\261\331\205\277T\317\021>\034\320\211\276\367h\352\276\262u+?\345k\234?\305W\352\277\203\325h>s\036\203?g\346\037\276J]%\300\343T\177>Fw\263\276\017\261\222\275\000\260V\2769=\363\276\216\3247<\360V\313\275F\325\334=za\307>%C\331;\244\353\376\275&\340\332\272Y\2254\276\302qQ>\250S\002\276\240`8\276\333\314\300\2762\332\230>\350\215[\276\037\354L>\362\306\324\276\264tf\276\371 D>\333\205\266>|\231{>\334\311j?\344)\214>K\201#\276\034az\276\021\025\177\276\234\264U=M!\016>y76=[\207X>\364\034D=\357k\024\276\266\024Y>n\212\020>\353\300\244\276]\2106>\370\027X\275 \355\002=~\372\361=\365\202\030>\220:\204<\000Y#\276\266v:\276V\0163;\000\227\026\274Wg\010\276\021\2101\274\271q\342=\005\351\034>\356\211M\275C\377\320=\347\272\034\276{?C>\317\241\246\275C\021>\275\2623\033\274\357<C>\212\353\340\274x\n\316<4Y\017=\372\r\243\275\216\034\364\275\000\200\024;h\026~\275\237\'|\275\350\341Q\276)`3\276\377\265\330=X\234\364\274Lw\030=\256\353\201=cyF>\251Z0\276j\000\020\276\200\2034<\277\231E\276\363xX\276@\215\267\273C},<\345p7\276\0055\036=\224\371\212>\336\214P\2769=\027>\206\007O\276\305/\232=\254\217v=\322@\037\276\200\334\332\272\302}\010\2764\210\016=\361%-\276F\352\254\275iT9?\331C\017>\303T\253>f\n\265=\266\211<\300\237\227\251\277\002\035i\277\270\335b\276`6^<\2240\r\276\334v\236>\367_\004>D\347\352\2753\316U\276X\034\334=\273\033\257\276\032\266\005?\373\204\260=\256\357\233>R\352\326=\345\2118\300\232\312\355<L\315\037>\r\311==\366,\307\275\263\"!\277\375y\033\300\017b\016=\016\277<?\316\232B\276\324\206\016\276W\370\261>\324\210\332<P\234\251>\301\035\244=\212\231(\277cQ2\274\014\r\363>\363\020i?-I\356>P\363\031>\025\241\226=\n\333U?&f\037\276?!\307>\331<\222\275=\355:\275L\356^?\254\251\000?\325\241G>7\205\231>\310\236.>|Ms\275~\037\364=\222\334\'>\307%f\276H\316V\277\217\301\337>5Ck\277\276\322\320\274\346pa\274h\3612\276\311\207\206\274\226&!>Sc~>(\214\225\274d}\307\274ZA\007\275\002Rj=J\320\343\275P\230j\275\356R\224=K\227\020>\230cX\276\260\226=\276f\025F\276\375W\'\276\307\212:\276\340BA>!\305\316=\376\352G>\0172\256=\006+8\276\300@\227\275\370\252!\276\231\272\237<\024a:;1\"\034>\013\243\345=\366\355\"=\376\301c=\315\322[>\321\000L>O=*\275\372\346\213\276\271\"\366\275z\024\177=\350!\022\275\222\213;\276\235^<=\263\334\361=\230\235c>\367\213\210>B\020\224;\323l\334=\236\302\231=cd\010\276\027e\030\2765\367\000\276\376,\346\275\3445=>U<\333\274-\2672==yz:s|&>\342>\354=\030dK\276\246d.>b\"\023=\215]\320\275w*\207\275lC\272=Y_\351\275O\364\270\275\335\205N<\234\375 \276\312J&\276\001\225\342>\255\002\304\277/z\227=~\221\267\276y\265\370\276\330p\342>6\334k>\333\372\262\276P\377b\276\004\333\003>z\346\034\275\236\322\343\277\'\246Y\276\322f\270\274f\004\322\275)\222T\276\002\3452\277\377\333\333\276n\302Q\277R1\246=\312`\207\276\230Z\200\276wfc\276\332\376<?\267\352\346>/xD>]\013\016?\374\000\242>7=\354\275\177\032 >\200\345\376\274\231=\313\276\375k\037?\350#x\276\270\255\267\277y\275I\276\323G\331<k \213\276>\000\331\277\351q\016\277n\003%\277\356\227\236\276ieJ\276xf\247\277\200\201S\276b9\003?c\356\276=E[2\276u\263\220\277\200Pz\277\001eH?\333\\\373\277kZ\036\275\005\307\210>\263\246i\275_(0?\207\353w>{\214v>\361p\235\277O\273\276\276d\334\'\276}\376\316\276\2079u\275`y\214\274IB\334>\322\220\330\275\260\226d\275\313\227\232=\212)2\276N\206\232?g\334\247\277\216\374C>\203s\">\306@\216=\373=\016?\265}\346;tn\001\275\034bN>V\225\237=\362\325\201?\t\364\t\300z\251v?#{\005?\016\264/\276\210AY\276]\354\007\300\0204\212<\235\267\212?_\264\346>\354\276\024\277,\2376\275\311q\212?\223\233F>\036]=\277E\336\202\275\250\275:?qv\r\277\360\"B\276\223\021\003>j\363\266\275\321z\335>\227\360\021=\3333\'>\231\223Q>\233q@=\223\243\177\275\000\277\223<\370\237*\276\245gU>\324.*\2762\254)=V\373\205=\211p\201\275\222\306\230=v\330\301>\037\211\276\275\005\311+=\023\010\366>\211\034\234\275\017\375D\276\306\317\202\277\267\225&\277\3622\302=\242\341\256\276\253#\'<\202\373\244?(\200\t\276\235\243-\276\r=U=A\231s?\251\363$\275\350\366\326\275\220\373G>\250\307\223\275\005\324\216\277\243\337J\276f\323e\276E\362\t\276\034er\276*\323V?\2652\350\275GES\275\347\251\202=\301b\227\276\377F\216\276_j\327>\t\036(>n\304E\277F\311\344=\315X\270\300\006>\226\275\371\272\367\276dP\235\275\023\362\320\276\314\221\265?,\234%\276j;B=\214\242\207\276\247\017^\2746\014\364\276\375\320\225>\300C)\275U\367\311>\241\325<\276|\026\271\277\'\037\021>\214\344\276>&\265{?\241\251\210>PW\223\275\235@G\276\302\212\272>\370\251-=\215\014\036?e])\276*\306\202\276\266\322\365>+\"\346>:\353\372\275\214j\260\276At\362\276\025jP\276d\237\277<f*\033\277\203\211\276>MbU?m\272\362>\022\245\002\276e\372\340=\037\365\215\276S\310V;\027\200!;,\206\341>\270\340\014\277\223\027.=\321$\376\276\303\313\241\274_\005\273=\266\260\364\277\342\345\010@\330M$\276=|~\276\013a\260=\364\372A=x\370\"\276N\271\006\277T\307:\276\212&\036>\213*z\277\251\220s\275\t=%\276\231p\241\277W\232<=\260$\027?\2734f>\2630\036\277\260\035\347>,\007\356\276\220\021\254>\025\037\200>/\300\227\275I\207\254>\270\254\202=\014\255{<\276\246I\277\177!\177\276\3710\001\276\230\240\216=_\317\253?{\2033\276\357\306\n?2Ke\277.?\234>\2240\301=\016oA\274[\322\200>\313c$\276~+\214\277D\375\342\275\365t\302\275\353T\030\276\264\307S<\3357=\276Gqy\277\257\343;\277\323\2247=\215!\267\275j\367\031\277T\036\260>\273\0046\277L\027\254\276\376Tv? Bh\276Fl\274?\024\365@=\277uM\276\027\367\325>z\002\274\276\3071\222\275\020v\370\276\224\032\023\277*\337\261\274\371\243\003\277=m\344\275\261+S\276uZ\006\275\\\"%=\016\004\265\276P\304\005>\t\246X\276\325\2558\276\'\352\362=i5\303\277%\206R=\241\335\263\275 \356\347\276\027\356~\276y\007r\277X\205\013\276\271\243\035\277\277\300\034?\202dq\276#J\302>\266#\001?\211\027)\2751>>\277x\301o=k\367<>\340\340N\275\342\324h=f\335n\276P\262\r<\313q\'>\262\001y=\222+\231\276#Qo\277\021\254o<b\344/\276\374\217\211\273v\310\271\276r0\000>\212\370\264\276\023\332L\276F\236#\276T\263\n\277\327\r\376\276\366\353#\276\307\315\211>\300AE\276 \302\205\2769\345\363\275\204Q3\276\311\226\033\276\331\006\031\277B\240`\276\2646\002\2769\210\354=\363\322\020\277\240\206\035\276\004\014\234\275\252\317\315\275\r\345:>\233\353\330\275\220\340\244<R?\353=\342g\276=_t\353=\215\313\343\275\352I>\276\336o\262=X\345\307\274\276\211\342\275K\016\002>!\237n=\333\024\037>\221\0140>\370i\322:\026Q\205\275\240K\010\275,\017\177\275\310#\266\274\021\301*\276\273\2521>\242\006\t>\335\314R>\200;\344:\227\322 \276/\347L>\320W\212\275wa{>\324\232\004\276\033\252\001> \t\354=)nD>\342Z\344=\235\206&\276\246YM>\200\3425<\274p+\276\241s#>\260\3640<VJ\312=y;\371\275\033\200E\276\334\375V\275\204\271\030=ErI>1\243\275\275\326m\337=\256\307\262\275\2331\016\276#3\014>*\316\023\276r\016\034>&\360\027\276#\270\327\275\2653\261\274\003\251d\2750\267m<\373\0033>\365\235R>)#\"\275\000K\242\275\324\241)\276tV\266\275\031E\305\275^\276\233=\017\350\034>,\347>\276\366\263\352\274\353g\013>\316\274\272\275\344\233\340\275\2328\342=I\275\016\276X\271\245=\311\001J\276\'v\273\272\200\222\303:\2117/>m,\r>\257\350\033>\005\'W>S\314d\275\272\033\016\276\251\345#>SFC\276\361\272\221\274\366\217\024>\272 \376=\331:\225\275\231|\221=\373.j>\202\030\225\275Yu\000\276m\2761>`\t\367\275\250\215\360<\006\tG>\0359G>Md\034\276\264\347\020=:\020p\275\214\210\301=\'n\322\273Z\254\355<\324\344r=Z^\306\275C\322\007=(\337\272=r\2677\276\241RS\276\334\300\350\275\344\021\025=\2744\265\275\267\376\314\274\241\256J\274\204\324\367;\237v\177\275\364\263\013>\372\3243=8\332\n\276\323%\036>\004\007\333\275z\363\t>\316\324\027>\202\213\312=^S\324\274\315\337\350>\014\027M\277\314h\010\276\271\244\022\277\372\320`\277\234\252\014?~\261B\276\310Q\237?\233\377\001\276\240\224\322\275E\342\203?\2139\304?\000\223G\275\024\235Q\277G}\253\275Q\376\331\276\264\264\222><\202\305\276\253\022\021?\350\201\004\276\216\301\006>^\365\263\276\260Y\177\276\367\236p?\322\344\026>d?/?\321\330 ?\004\032(?\325\310\356\276S\2436\275\351z\016>\357\202s?2T\"\277O\254!\276\267\'\254\277\345\\\r>3\256\010>\027\276\207?P\374)\277\242]-<6\211\326\277+\r\301\274QW\027\276\031\366\'\277\267\023\245=\253z\333>\274\3607=z\036\230\2762\261\256\275\377\3077\276s\035\247?5\243\267\277y\333\261><\234\240?\377\254\035>V\326\031?2e\257?y\352\326\274N\210\366\277+.\243?\317)\222<\232\301\240>~R\225=6M \276H4\271\275\367\241H\273\373?\004>\037\325\275=P8\304\275\210\'\022\276\017\361V=\365f\301\275\321NV\276\256@h\275\335\305\322\275Nw\354=\302N\315=\302\t\025\274\226\230\373=:\2403>\333y\277\275I\251\221<\261\231\306=t\324\312\275\252E\254=\275JR\276\376\353\234\275\270\'\320\274\321=\340\275~\006\022\275bIY=!\376#\274K\005\">U\r\027=h\2214>{\310>>\304\360\200\275\177\253\336\275\241\311\237=K+\032>\342vm\274\357\271\177\275\266>\311\275\265\337\230\275\337\'>>D\260\007\276~\254.\276\3134\025=\333\236\014>\216\2477\276\276T\331=JU\330=Q\002J>\314\337\244=\332\304j=\326\026\200=%LQ\276Eo\274=O\250\263=7.\317=\3771\032>\037Z\254\274\326n\n\276S\306\201=m_;<\341\347;>\230\223\362\275"
      }
    }
  }
}
node {
  name: "dense_21/kernel/read"
  op: "Identity"
  input: "dense_21/kernel"
  attr {
    key: "T"
    value {
      type: DT_FLOAT
    }
  }
  attr {
    key: "_class"
    value {
      list {
        s: "loc:@dense_21/kernel"
      }
    }
  }
}
node {
  name: "dense_21/bias"
  op: "Const"
  attr {
    key: "dtype"
    value {
      type: DT_FLOAT
    }
  }
  attr {
    key: "value"
    value {
      tensor {
        dtype: DT_FLOAT
        tensor_shape {
          dim {
            size: 64
          }
        }
        tensor_content: "n\340N\275\025\026i>\001s\306\276\022\r\002\275\023\026\021\276`\201\233>\364\"\014\277\340$\341\276\2518?\277\022Q\275\274Xy\230\275\003Gj<\232\n\005\277\035r\225\275\022p\006\277[\231\330\274\334\177\272>\027\021\263>4l\315>\231\353\252>M\213??\321ZM\275\354h\353>\244~O\276A\\\253\275\232\274\033?fry\276\240\274F\276t\003\320\276\365\212\010\276\365(\373\273\255bv\275\334\005\257=P\312\252>6W\231\275O{\013\277\t\253\022\275\244\331N>\311\020\241\276\310\304\371\276p\312\021\277\324?\214\276\2205\013\276>\305\201\275AgY\276h\212J\275\2324\022\277\252_6\275\222\031\270\275gY\007\277\275\206\336\274\361\324L>\367I\023\276n\223\305\275\236\317\277>\264\245\027\275\352\205\216>\327\306\"<,\037.\277\332\323\301\276Z\354\t\276*\206\255\275\034\305\001?\341\361\201\275"
      }
    }
  }
}
node {
  name: "dense_21/bias/read"
  op: "Identity"
  input: "dense_21/bias"
  attr {
    key: "T"
    value {
      type: DT_FLOAT
    }
  }
  attr {
    key: "_class"
    value {
      list {
        s: "loc:@dense_21/bias"
      }
    }
  }
}
node {
  name: "dense_21/MatMul"
  op: "MatMul"
  input: "dense_20/Relu"
  input: "dense_21/kernel/read"
  attr {
    key: "T"
    value {
      type: DT_FLOAT
    }
  }
  attr {
    key: "transpose_a"
    value {
      b: false
    }
  }
  attr {
    key: "transpose_b"
    value {
      b: false
    }
  }
}
node {
  name: "dense_21/BiasAdd"
  op: "BiasAdd"
  input: "dense_21/MatMul"
  input: "dense_21/bias/read"
  attr {
    key: "T"
    value {
      type: DT_FLOAT
    }
  }
  attr {
    key: "data_format"
    value {
      s: "NHWC"
    }
  }
}
node {
  name: "dense_21/Relu"
  op: "Relu"
  input: "dense_21/BiasAdd"
  attr {
    key: "T"
    value {
      type: DT_FLOAT
    }
  }
}
node {
  name: "dense_22/kernel"
  op: "Const"
  attr {
    key: "dtype"
    value {
      type: DT_FLOAT
    }
  }
  attr {
    key: "value"
    value {
      tensor {
        dtype: DT_FLOAT
        tensor_shape {
          dim {
            size: 64
          }
          dim {
            size: 64
          }
        }
        tensor_content: "xQ;\2763\234\003>f\2243>;w\'>V\320\325\275\330\014\271\275\351]!\276\372q)\275E\362\340=\340\017\321\273Xv\177\275/s\350\274\\\030\300\275\365R\342=[\203\033\276\'\372*\275\351\210\362\274@\332\027\276y\201\331\275\362\215\016>\302\037\253=^ \205<\177\020\274=i\226\363\275\223\024M>\325\211J>\215u\005\275\220TJ\274\312\326\347=\277\002\026=\220\251\t\276.\311\316=\032\240\202\275\354r\010>_\372\330\275\336M/\275\277$\037\276%I\362\2755\260\252=3\220\'>\326a\311=\271\2055>?\337\030>\266c!>\373\034\032>/#\234\275]\023]\275\001\307\334\275\374s\262=(\247\371<\333\231\337<\371ZB>/L\316=K\210\022=\t\004\234\271\354\026\257=\017\r\260\275\010\364\310\275\367\301J>\250q\355\275\253\337\252\275\253g\236<\016\276s\276\301\034\013>\276\256\n\277\002\337E\277\310\013\203\277\366\327\223\276\314D\246><_\252\2762\005\\\277\355qC\275N\033\313>m\005\277={p\243>\373$6>\riA=!(\300\275\246MY\276\321mu\277\317\205\000\277<\017\216\276\030\2249>\343`\236\276\241\314\r\275\333\263\001>Zc\006\277\377\3618\277^\273\007=r\037\327>0\237\255\276\312xK\274\025@W?\023\345F\277\235\355\037?{\260\372\275\360R\313\275\021\322\022\277\247\006X\276\303=\317\276\036\326\264\300\344\344N\275\256\226\243\277!\254\315\275\214\267\000=\264\3611\277\336\206\314=\263\252\007\275\334\233d\276\332\035\030?\236=\343\2764M\251\276H\351\321\275\232\254\261=\336k\323\276\201\214\224>5\234\305\275\t\314K=\023\366\210\272\2665@\275$\255/\274\0268E\277\225\256i\276|\236\000?\331\314\n\275\323\334\024\276Fj:\277\324W\253\277\277\025\247\277\267\266\205\277[\036X>\375o$>\2020\254\276~\304\207\276\004\002\275\277\220)t\277JnS\277_\322W\275\303?\223\277i\2317=\331\252\304\274\325\020\000\300\372\034.\277\372\003\265\275\225f\340\277n\212\223>\230\226\246\2779\370\021=E\365{\277Rp\271\277\317x\276=\0069\327\275\034\253\217\277\355\212\353>\200Q\206\277lL\007\275`\030D>\364\207&\277\"k\325> r\207\276\366\326\024\277\377k`\276B\245\212\277\233h\025\300\357E\211\276\2323\034\276\226\237\314\276\253\206+<\230p\325=\335\310\276\276)\324\331<\013\247(\276\373\214!\276\255\214\010@\366\2167\276\234GI\277\271\006\214\2765p\201\276\004a\265>\372\212\331\277/:\255\277\341\233\006>\226\376\364\276\211v\022\277)R\021?\325-\003\274\023\354 >\210\337\372\2776\251\233\277m\247\304>{P\220\2765\3570\276\000\361\205;\325\220\374=J;\246\275\312\300.\275\221\307\220<\224\302Q>\354M9>t\0371=\347r\330\275P\374\344\275\351\0006\276\316\227\253=\000*>;Zo\\\276\325\347\026\276\207_\036<\302\314\203\275\350\207\331<\351\364&\276\202\233P\276p\375>\274\250,\337<\343\265%\276\347\027\365\275\300\000|\273\355~\341\275\223\356\036>\353}\030>\221T>>\274\250#\275m\253\025>\360|\032\275\212\365[\276\334\'\303=c\317\305\275>\024\361=\230tS\275\022\361\337=\270\261\250=\375Q+\276\224t\000\276u\323\014>\317\0029>\230\305\377\274&\205\255=\0042\031=^\377M>`\327\344<\345\214\034\276\020\262\020\274\214\016T>\340\265\202\2730G\202\2741d)>\354>\004\276?\353?>\006j\200\275\366_\032\2768+\033\276t\243;=y\2415\276\236\321\273=\377Q\206\275\214\246\275\275\363M\216\277\313\230\324=\021\021\352>\354\246\035\275\211\314\036\277\272\215$\273\365,X>6u\256=CR\262\275YFP<~\014\021\276+\337\024\277\037\027\354=\037\016q=8{\n\300\321\240*\277\312\030\256\276\325\020\336>\200}c\276Z\254r\276F\363\266\273\264?.\277+\024Y?7\035\\\276@\327W>\177\264\235?;\322\273>\210K \276_\367\332>\236\002\360\276\313\313\341=Jt\245\273\207\'@\275\225\347\216\275\217<\202\276^,b\277\002k^\300,/\035=4\034=>,\n\'\276\372\321\216\276\337c\010\275\226\036K\275u\013\n>\224\"\313=\020j\020\277W\237\254\275|\362\362\275g\214\244=\243\241\264\274\244c\217\276i~5\275\307\301\240\277\267$7\275;,\242=4\314\024>\035\272\217=\304\3561\277\370\003\360=q\257\334\275q(#?\216\032\336\276e\360\306\276\177\'\366>\331\273\005?\351%\274=\226\260\220>\336%\320=\360\200\330\273\347tI\276\233\006\357\275UQ\240\276\325\213\001\275\371\351m=\214HR?^\224;?A\347\016>\311?A?\024\356/\276\325\347\210\276il\223>\266\247\037?H\001\273\276\036\346\231=\016}\n>\351SK?2\213\223>\222o\314\275V\340\227\276\202\031\366>h\317\217\2768\363\303\274q\237\341\274\320\342~>\200\232]\276\013*\003\276\247\025b\276\356\303\3419\276\251\235\276a\260\020\277\221\315\214\275>\372\202\276\210C\222=\246`u\276\030\257A\275\304\270\201>$\0370\276\365\357\372\275O\t\030>\364\214\213>\017\352:=]\330\305\270l<\214\275\205\355\250\276\324\227h\275D\265\210>#\002\212\276\020\352@\276|`\225\276\036}\364\275N\306\236\277\305\302&\276\300\320(\275\023\024S\275\372\221s\276\377\006\217\275\233X\013\277S\342b\274B\315\360>\266\324\036?\211\033\204=\274\210*\277J\360\000\277T\030\204\277q\\\252?\202\331\003\276\312\244\177\276[\037>\276\306\376\242\276\356\223\266>\223E\237\275i\231\022>\331H\252\277^\240\343\276\317\204\032\300\322uI<\366\242e\276\274:\\\276\321A\233\276\t\032\002\277\326\271@>cX\310\276\326\370\372\276\n\320\360=\\\2622\276\223\255<<\036\343\024?\347\222\314\276\270\332q>\351\307r\276\016\240\255\276\312\003\222\275q\344\254\276\363\202\025\277\033\r]\276\263\367\210\276\305\252\245\276+\'\242\276A\346\270\273\335\210\305\275\032\231\357\275\006\220\004\275{\257\256=W\335\365>\255\202\205\276\343\032\235\276\227e\323\275\304\250\267\275_\313\200\277\t\247\336\276\227\000\n\277.\033\341\275\223H\332<\241\007\212\276\t\366(\276\305l*?\207\361l\276@\310\202\2762\263\335\277\3339\301>\n\203\014\277\327\020\354\277z\210\373=\037\361\245=\243K\267?;R\204\276\333)\032\277g\237I\275.\033\036=\363\211H\2761\363\034?2\337\372<\031x\361=\366\374\211\277\027\023X\276><*?\214N\000\300\202\034S?ha\003\274\305z\036\276W\032\374\277\350\232\305\276C\354\232\276<\342\357\276I\207\037>\367_\214>\2534\342\275\237\037\300\275\205\036N<\350\315\201\275\305.\351\275\230\021\272\276Z\252\t>\221\350P\276\313\244R\274\374\214\242\277\363X\264\276}\317\301\276\345\222\266\277D\0039\276\373\367\340>\271\375\030\275\177o%\276\306\313`=o*\333\2773\376\204=ff\004=\177\3010?\035\300\021\276\357h\363\274E\014\033\2761\357\'\275\020E\252?\370\336\337\275au\350\277\352\211\266\275\026\323\256\275\235<\242\275\357\354\313\277z\2436\277DDs\276\251rR>\252-\313\277?\000q>\246\377I?\035\244\262=\3708\n\300\344\227\235?V\256\211\277v+\201\277\024\345;\300f\244\201?\261\267\343?S$\211\277\357}\204?\213b\213\272\007\010\375\274|\377\275?\001\370[\276YG\355\277=\026\321\277\342\026{>r\357\345\275\336\211\023=\225*\250\276\3534\025\277\241\373p\276D\371\354\277\232\257h?\210\254+\277\271\2363\277i\255\241\277\001GA\276/~3\276\223\311\177\276\31564<Q\276>?\257zG\276\034;f\276>c\204\277\004C6\275\307\365<\275\261\236\240\276v\334\"\276h\347h\277\203\362 \276A\237i=\003\324/\277\341Y]=)\351\354<(\251\324\275\205\260\300\277\270Q\240>p\310\320\275\376\016f\276\225%\261\276\214\232\204?E\200\271\276m\315\245\276\025\202\315\275T\265\330\276\270\361<?t\270\240=\234\333E\276\212\347`\276\234\037\037\277\234\362\265\277)[~\277\277\323\306?\3550\216?6\222\360=A<F\276w&\335=M\313\206=G9\333=0w\312=\300\242,\275G~W>m\020\311\275O\204Y\276\373Nc\275D\271\001<\000\334K\274\355\214V\275\247{\223=*\253\300=dM\204\275\355\362\321\275`3m>z\224G>\177\364B>\225\224D\276r\033\035\275\331\337\310\2742\026\033>\313\275\306=\233\234\246<\234K\220\275W9\253\275\300c\002>DY\341\275L\n7=\320\307\265\274\340\031\'\276\337\262S\276\245v\366=+\\\207=\020\007\257<}\335Z\276\344\242Q=\340\2172\274\271W\025>\312EC\276\220\232d\274-m>>\327\035K\276\212E\253=\275\350$\276\2005\322;\201\323\361\274\304\017\244\274\000\233\003=\256q%\275\206\333\215=\036\325>=\2134\251\274=\272\203\275\020#[\275:R\302=\005\257-\275\357z\033>\274^:>~Z\'>\016\275\010\276`%\036\274\026\322\245=\271\321X=\3071;\276r\300\">~k\307=k\304V>\250\270\204<\214\021\326=\200\305w\273\240/\205\275X? \275c|3>\362\022\313=\353\033;>\267:V>\270&\332=\253\t\373\275\232\326\312=\022\2230\276yMC\276\232\322\037>\013\035\204=\t\233@>z+\343;\003\027;\276\253\340:>\226\277\255=\200 3\275\367\332\274=\254\354\020\276f\354\242=\016\345\253\275\237\263\353=ggB>\270\341\375<\2773\367=\377tZ\276@B\210;\020\202\323<\271$\373\275\204\366\304\275A`9\275\002N\350= \271H\275\264\202\024>#;\007\276.\320\004>R:\252=d\221S\276\334C\346\275\231Q\323\275\030\215\017>\005\r\010\276\017o->\222\022\375=o/l\274$\000W\275\000\353\373:xf7>]\217%\275\033\222\002=\000\376%\276Z?\321\275\007Z\366>s]n?*\rX?\364\337\007\2765\006\003>@5Q=0\311\366\276\270\t\337\274\254>\327=\247\007\252=\264Tl>\371\177\177\276G\256\372=<D\210>\217\365\r?\007U\235\276J`\024\277\0303\202\276=\037\262\276\276cj\277\315ia\272\004\211\034\277\036\\\310\275sn\275\275j_p\275W\016\254=\343\272\023=\351\356O\274\353>\215\300:\353\262<\377L\274\276z\216\216=\344\203\206\274%g@\276\305*\017\277EF\271>\307\005\006?\212I \276\271\235-?\240-->\230\237\210\275\372\251;?\337\222\222?\255\311\230\276\374\322P\276n\032\232?\023+l\273\371\333e\273J\224\036\276t\224Y>>\020\013\275\346\377x>\233\017)\277(a\"\276F\260\007>\322\n\027>D\360\204>-\332\274\276D\260\010\276\021\304\324>E\371\233\276T\203\237\277\007e\210>\353\335\221\277B\342\006\300\232\2073>\236\374\214\275\004\261\000>N\373Q\277\236~}=\215\t\227\275\304\213\214\276\"J\324?\226\2358\275\024[I\277\267\000<\300S\351\302\275s/g\300C\362\254>\200\332\232\274fDX\300\253k\231>\224\313\032\277\022\005\245\277h\204}\2777+\\\277\332\253\311>\237\037\247=T\333X\277B\225h\277\273\344K\277\236\212\214=\264\036\207?\217\342\225\277\273\'\023>%4\234\275UN,\277\204\032\006=i\251\201\277.B\222\277\334\026S\277\260s\232\274k\017;\277\263\377\033>!\204+\275\266D\266>_\260-\276I\265\024\2767\263D=\332Y\311\276\340z\240<>\026\337\276\321\204\342\273-P\003\277\344%<>4\306\314\277a\005\010\3001\350\204=\226\033\355\276\023Y\265\277\010x\233\277Une\277\221\324)\276]\261\374\277\031\204\372=\020\271>\275\004\022/\275\336\261\340>5E\332\2756\274:\276\340,\337=QM\262\274*=c>\220j\373\274\242F\"\2765\234`\2768\376N\276\000\322\313\273\323\216\255=\323\310\235\275=\267X>\267{-\276\007\226\354=\246\340\311<\032\215\350=W\021Q>F\353A\276\225\2651\276&\352\220\275\237\337\347=_g\261\275\"\207\366<\337\375\004\276\246\017\007>\213\357\025>\234|\030\276\221\345\320\275\000\3153=\332\314\221=\314\241=\276.|\014>[\034\322\275\032\177;\276\251f\266\274\240\177\256\274v\246A\276[\331\277=\3159\020\276\300w3<\266\341\245\275\322\341-\276\365\367\037>\005\343T>\306r\020\274[e\372\273\036\253#>\010K\327<\272k\266=}\3700\276kl\034\2766lZ\276@\377A\275\304\256\343;\200O\255=q\270d\276\302\024\007\276\"\352\372\275\221\t}\276\224]\366\274r\342,\2760(\236\2751\365\321\272=a\323>\367\204\330\276\016\354\332\275\360\006\215\276\002L\025\300\333\237\246\276\312\322D?\267\032\031\276l1\364>\372@\202\276tR5\276\\-\246\276+\255*\276:\207\264\275l\017(\300\3477\276\277\307!\037\277P\"&>\331\r\203\277)}\202>\342\007\227=#\323\243=\204\003}?\217K\016\300\367\221\007\276\321\320\365>\227_\023\276\303E\007\276\r=f?\355k\272\276\304w \276\207S~\276\373\033)=?2\365\275\261\202\375<l\247\254\275Z%]\275(\021\016=\200\001??\235=\201\276\372\345\227\275\036\342\227=\274\373\324\276\373a\215\275\301\363%\276ra\376\2761|\344\275\202l\210\274\323-\306\275\242\317\205\276M\322X?\260\304?>{(\224\2761}0\276F\"x\276\346*\225\274<\362\226>@i\257\277*\\\204=\035P\013?\320 \303\275^\216\001=\030s\235\277\224\265\033?\301\\S> \355\024\274\344=)<\016\2467\276\274\001\370=mu$<\310\2237\276\332\313\274<\222\317\010\276\246\344\357=\273`\251\274T8j\276g\373\026\2764q4=\274\340\205=\032\227\366=\255/]\276\263\273\306={H\005\276\363\236\025>\3167 \276,\021w\276\247wD>\366\307\016\276\322\246\236\275\002\2419\276F\364\022>@r\306\274(\266b\275\334\214\353\275`\263\241\274 \361\326\273\302H\374\275\350\033\035\276h\003\252\275\335\266\362=e\2257>\321\340@>K\016\000>\332\373\367=\2730$>?;\032>\374-\000>Hj\276\274-\004S><\037U\276\375\215(>\376\324x=\317C8\276\354\027j\275\371\332\032\276_\260\205\275H\225\204\2742\214\217=\226\236\301\275_\322\367=\261m!\275\200B\266\275\3122\206=\r\345U\275\240+^\276y|:\276!\253\252=\2446,=m\013\253\276\036h>\277\33038\274\337\362\020\276=\315\241\276BH\030\276Q\312\033\2768TP\276\351\031k\276\246^|\276G0}=\272,3\277:\3775\275\323n@\276\034\333\231=_\363\004\276\316e{>DX\242==\035&\277\021\302*>+\270\200\276\025\021\326\277\231{^\275\270\001\301<\315\233\312\276K\322\202\2769\266\201\276A\343\210\276\264\357\t?\262$\316\276\037\237\243=i\326\007=j@\203\276\345\t\000\276\033-\320\276\312C\227\277\247\240\250>c\n\307=\200\372\'?6\230\'\276\232\211\320\275\250\220\352\276pF\361\277\304\n\254<^\300\306=\333\224\014\276\215\257\217\275\320\214\000\277\322\376\234=\223\332\211\276:\352\235\275\010\247:\276\002*\242\277\363\313\230\275\355\0219\275\200\006\217\275W\244j\276\024\331\334> \224[\276\344\326\347\275\363\234\247>\0018\005\277\022\254\007\276\005\214F\276\017\243\252\276M\221\365\276J\037\033\277O\274\257\274[i\211\277B\016\365=\'\3711?\334-W\275\251\325\345\276\335\363\246\275Q\035\\>,\013\214\277F\327\201\276\234:\017\300\330\037\366\276\342\"]\277B\017\034\276\016\237Q\274\214\326\333\276\354K\371\275\317\323\010\276?h\202\274\030O\005?\024C\232\277p\342 \276\202\034f\274\237\255~<I\313\267\275\203g\320\276\"z\377\276mO|\276~\215\252\275\262\315\002=\254.=\277>\005\354\277j\344\217\277j\276{=\247\363\265\275\331\275\030\300\331r\245\276\330K\337=zN\025\277\347P\014\276\211gt\274\226r\307=\027tS>J\376p\276e\212\r\276\342n\274\2738X\251\274W\366.>\3510?>\025\017\244;\212\367\321=\266\n\233<\216&I\275W@\333\276`\357\317>Hp\252<\315\005v=l\246\241\277\363\317\005\277\327\314\203\277\362\321z\277\030\350\276\276J\211$\276]\253\230\276\213\200!>\261o\230=\346Z\204\276)\361b<]\203\247\275\371\231\322\276\334\005\213\276)\376\005\274\373\246\361\275\214|\230\276\264pU>]\304K\276\221[e= \361\312\275a\315B?b\216{>\247\216Z>F\023\260\276\273h\324\276\367\002\003\276\276d:\276\032\371\226\276}R\010?\177\006c\276\355\177A;\2105.=\261O\214={M\177\276X/\031\276KeH\276\377Qx\274\2754Y>\265\201\277\276\231\360\312>X\335R\2753\034\367<\316Z\"\276\213\355\312;\243N\232\275R\265\274\276\316\273\007\276\274C\336\275|\221\001\277\025!@\275\202\210\211\275\374\225R\275\272F \276\232\255/\276\217\004\016\2769\361p\276\350 x\276\250\212\250\275\357\227\236\276\243D{\276s\346\340\277v\206L=}\005\232\276\337Z)\276\363\002>>\035\276\336\276\200%\262>\225\251~>\016\226q>m\037\307\276{\365\240>\304\260\032?\331\365d>\312WU\275\3671\337\275Bc\213\277\277\211+=l&)=\234\231B>\\\341W=$\362\002\277\\*\233=\356\270\263\275pD5>\261\025/?f\033\230>\313b\203>\305\024\001=;\212\030?58\330=u]~=\243\371M>\2766z>88\036=+\264.\276E\305]=M\360\216>5\002 \273\377\254f\276\206\r\272\274\r\035\033=\034p7\276&\242\034>\361\270\020?GUJ\276\364\032\276\275\035G)=\247*O\276\031Rm>\010H\262\277mY.\276\341\250\210\275\260\034\036\277\240|\353<\332\324\300;\"\204\246\275\204V/\276\374\307\032\276rE;?A\206\007?K\362\274\274z\320\025\276\241=\312<\251<\243>$\345\257\300\372\205\201\275\236\311\262>\247\322\234>>\313\005>3\330\200\277\022g\002?\0025\020?N\320\354\276@+\224?<E\343=\215.\303?\002#\365\275\362zY\277\243\032\332=\232\255\375\274\367\246=\275l\223-\276s\274]\277x\r\000>J\355\230\300_\365\257\277\366\337\000\277\201!q\275\323\232\t\276\274\220\334\2771\274\333?\256\312v\276\376\030\211\277\032\262\271>\240\006x\275p\376P\275\361j\332\276(\003\004\276\210\326&>\tH\026\277\245\223\027\277d\225\261?\311\021\225\275\021\317\230=\0136\r>\374e\213?\000\334\\\277\241y\334\276\326\321^\275\240\240\035>\372l9\275\221\233;=5K\306\277\310\033\023\276b\356&\276aZ\006\276\rQ6\276\030\273\232\276\230\225j\276\344\353\326=q\261\301\275x\333\315\277\221-\300\276oI\251\277\010\306\001=\244O\030\275D\367\264\276\323o\312\277\243,\273>:\226+\276m~x\275\332jP\276S\252\t\277\350\217\003\277A\005\303=\205\000N\276\2458\035>\345e\354\275\\\001\035>\177\3219\276\265\004\254<\234N\230\274\014f\006\275\3622 \276}\273F\276#*8\276q\226G>\214\177%=\234\031*=\260\224\320\273\212\236\330\275L?m\276\256\255)>%NB\276\320\372^\276J\373\271\275\024\323`\275\372fd<b\022\030>\360\310/>\362\035\014\276\005\003\000>G~\021\276\372\367\333\275\363\362\202;\364\250\201\273\207`2>\320E\200=\377\\\357=d\207\036\276\221( >\014\246\'\275s[\017>\372\024\035>\211\001\">\000\224\2539\256\177\221=\t5?>v\351\274=ZU\370=\224\376\022=\247>:\2768 \262\275\034|\034=#\340\224\275-\307U\276^m4>\344\0171>\300\325\000\273DS\347\275\331;\353=Y\360\342\275\210\253\302\274\256\330Q\276\333O\234=\221\006\005>1\n(<,\2435\275\006t\335\275\377|S?\022g\366\276L5l\276\244\375\216>\205\032C\277\310t\025?\221#\334?\010\014\244=\177\205\306\276\030\007{\274CEZ\277\200\355\002\277\000\025\366\275h\266\275\276Wet\277\301\343\026\277\002\263\247\276\033U\033\276\007\366\277=a-\204?\231(\013\275\321\355i?\3764:?\244\0161\274\323\304\267\275\025\260\237\277MXG\276C\014\t=n\365M\277\034(\233\276\')\342>\014\024\324\275\342\003B\273N\223\037>\262\254a\277\203O\222\2779M\037\276\306BN\276>\025\222\276\026\030\203\276\036\221x\276\371\221+\276Z\374\313\276\321\301\304\275=\033>\276(\261\007?\371\021f\276\023\333!=\000Q#\276\304\222\\\276\024\347>>\345\251\307\274\026\0363\277\306:,\276\206@c=uy\302\276\315\202\350\276\234\336,?1\357\002\276\030\325V>\274\370\031\277\231\355\220\277#\004\034? `\336\276\254p\243\276\024\237\212>\\\347\035\273\276W\"<<\257\353\275Md\321=T@i>\217\013+>\000&\223\275}n\027\276:O\260\275\350Z\227\275v99\275\250sT\276}\364\007\276\304O\254=4\234\235\275\335 \214\274c\234\217\275C\217\025\276\274o\270=\215\020\014>P\007\225\276\n\373\221>\361\236V\276\237x\257=\324,\t\275H\204\367=Y\210\312\276\013\025\327\274\273\232\024>f\377I\276\230\250i>\341X/>\241\361\033<B\367\003=\231]\324=\212pY\276R\005k>&\013\\\276\0229\334\275\003y\345=.0\200\275:M\347=\343\241\010\276\006\220\261=F\343\202>\374=\032\276\337q\364=\nw\'\275\347\026M>ow\247=/\371\311=\364TL\276]\245\256\274\320\035V\276f\023u\276\375_;\275.\372\n\276\205\274\020\276V\322\337=\356\230\017>\364M->\3173\r\276\2279\021\277\225.\317\300E\327R\300\331\006t\276\302\215\240\300B\223\253\276\346x\201>\275l,\276x_\313>\242G\247\276\356j\212\277\274?W\277\017\224\375=K\316_\276A\353\340\275J\036\306\277u\320a=\336\212_=^4 =\334\230\'?\021\r\206\275\\\000\273>\2739\212>o\373\300\277\177\367\277\275\337\356\010=\225-\341;\r\275)\275@\252\034>\271{-\276\255^\232<\013\222\371=\334\231 \276W\032f\277\226\212\365\276\214\226\272\275\267\215\201\277\021\014u\276&/\240\277\213\227:\275x\255W=wgk\300\362$\202\277\346\001\362\273B\275\363\275\274\014\337\275\276\374\306\2769`M\276\213&\220\276\270@\275<\235\343\253=H\336\\>2h\231\276\253\277n\276\375{!\276\005D\205\276\034\330\232\276\rl\265<\225\336\250\273,\t\216>8o\253\275\260r\271\275H\333\311\277\341\232\345\300\256\253\037?m\213D\277\315X\335\274\246\252$>4\224B\300<=\254<\331_;\276\256\000\341\275\376(\227\277\025\372\317\276im\205\2760\374B\276\375!\255\275\337\203d\2766\213\237\277j\211\217>X\222\'?zo\002\276\330\004\013?\275U%>\377A\017\276Hb\023\275\241\342\364>\245@\242\276\014\361\252\2763\203\331\277\"l&\276i\341%=S\036U\276.\241J\276\347A\t<\375fR\275,wh=\003\323r\276\\\230\226\277\365/i\2778\323\000\277\322\324\205\275\362{?\276\221\033\237\276j1\212\276\037\3058\277y\331\230\277z\201\022\275\224lj\275\005ME\276\221] \276\220M\036\275\321\303P=`\177\341\275\371\245\203=\343\226\021>\374\255#\276\226\205\021>o\010\364\274\3176\271\276\253\000Y=&y\304\274\222\316\001\276\272a\031>\247\3512\277%\020\227\275\377\342s\276D\203\'\276\004n!\300qJ ?i\'\261\277@\247\022=\253;\274<\225\347S>?v\037>H!\375=\353\317\021\276^\000\272\276\244\333f\277\306L\220?\275\374\355\275F\354\242>\333\001\267>\216\365%\277\357SD>&G\236\275\302\251\203>\032\204\224\276\351b\314<dM2?\263Q\026\276;\315\256\2763\003\031>\253\237\263?M\305\211>9\221\"=\223}\346\276\375\010\201\276\340B\355\275\026r=\2763Wd=23\233=\357\\B>\245\203\372\273\361\366\210>\010F\346\275a\243%\277v\300\213\276\314\206`= O\272?\354\213)\300\341\354\351\275 \353\223\275q\242A\276 Z\301\275T\307\005>F|\021\275\304T\211=\r}\261>\013\237:\276v\316\361;\324&\203\276\371\032\032\276\361B\227\275\335\250\227\2763+#?s\374\322\275-\024\301>\301\367\211\274\324\2123>\241\332\224\277\305\362]\277\202,\240\277\350\320\253>\265\234\261\2761X\010>\336\005\255\273&\306\210=\014\244B\277\373\267\273=q\007h\277c\313\031\276\007\224\260>\3122\200>B\034\331\275c\027\240\277\214\304\333?\364\345\360>\254\026\\\277\270\255\321= 