node {
  name: "dense_29_input"
  op: "Placeholder"
  attr {
    key: "dtype"
    value {
      type: DT_FLOAT
    }
  }
  attr {
    key: "shape"
    value {
      shape {
        dim {
          size: -1
        }
        dim {
          size: 7
        }
      }
    }
  }
}
node {
  name: "dense_29/kernel"
  op: "Const"
  attr {
    key: "dtype"
    value {
      type: DT_FLOAT
    }
  }
  attr {
    key: "value"
    value {
      tensor {
        dtype: DT_FLOAT
        tensor_shape {
          dim {
            size: 7
          }
          dim {
            size: 30
          }
        }
        tensor_content: "\315\245\306\277\004\364\320\2750E\305\277\326\335\376>\3056\224\277\340\224d>\030\314-\276\326aV>x\214\207?6\362\300=\364\214\014>\364;_=n\263F\276\304-\260>\303\215\377>\004\023\037>\'j\313\276R\320A\274\2474/\276|\206\300=\345\264\234>\002\234\014\277\204\253K>\350\014\036>\377\2713\300\332@a?\217\260#\276\3574,\276\3507<>\232\006\230\276\322\177\300>p\307\373\275\334\330J?\344h\366\276]g\263>\254\332H>fat\277\371\264\257=\203&\304>\316\212k>\374\270\312\275G\344w>\363\016\260=9\371->i%*?%\023\033>@\363\243;*\263\216\275\013:\022>\\K\353\275\2470\316>\363]\335>\262g\311\276\341\227;=(\320C=@\031\177\276\330\001\334\275Ej\241\276U\372\372>\317\032\272\276=\270B=\303\262\315\276-\257\243=1y\007:X\357\341\274\327\273\365\273\t\216\215\276\003}\375\273\254\n\014=V\200/\273\320\220%\275\315>h\274\'\270\r\274N\345{<\254\\\213>\276V\272:\211Us\276\330#\005\274\032\200\202>\364\377\235\275\240L\305;g\205\211\273\273\265a\276\222W\001<\321\233\256\274W\342@\275%n\"\276\200\312\005>\241\347\014\275pE\351\274m\377\200@\350X\356=\357m,@\234\017\370\276\221@\216?\307\325\332\276^\265\214?\224N\202\276\207\3575\300\274\221\354\275\024\241\007\276~\024\002?9z\210>\013\360C?\246\304\245\276%\020X>\030\223\021=\245\301\350<\r\200P\300\354\326\301=\r\010\205\276\363\373u>\324=K\276\307\242C\274\330 \303\276%\221\202\300\325K\226\272\350A\305>\213\306\377>\006\033\262>?\3406>\324\232/>u\001\264\276\304YO\277\256\030\271\275T\261P\277_\203\342=R\276j?E{\204\276@\272v?\346Oi\276\352\221=?4\345\245\276\010eT\277\010\034^\276\034Ph?S\341\276\276\332\031Y\277%\214\361>\215\277\242\276\n\302\215\277\203/\\\277G\274E\276I\010r?\206\333Z\276\306\033p\276r\225\236>\\\002\300\276\223\324\003\276\200\006;;i\336\256\276\222\033\227\276\346\226\234\276\257\345K\276\377tB\277\271M\253?\306b\210>\322\317\221\276\315<\017?\2678/\277H\337\002> %w\277b+\266>R{\372>DU??\361\035#\276\240\302j>\334U\244?\327\220\004\277\"\023\244>!\200\177\276kv\002?\220\001==q\234\\\277\255\250\220>\233%Z=I\'\301\276\364\256\243\276OCn\277\370 \225\276w\3054?\256j\314>\023\014\263?:\270T\276\232\234\356>\255\276\345?\350\264\231>\233\226\357\277\006\214\020\277\303\232\335\277H\347W>S\327\365\277\322\017w?sA\021@\235u\234\276\343\371\346\277\010\312\313=\2132\360?t_\267\277\270x\313\275\256\234\016\300\330K\222?\300\352\242<\326\365\007\300\267\240\277>S\373\365\277\0314\231\276\300w,>\025\217f\277\0340\234\275"
      }
    }
  }
}
node {
  name: "dense_29/kernel/read"
  op: "Identity"
  input: "dense_29/kernel"
  attr {
    key: "T"
    value {
      type: DT_FLOAT
    }
  }
  attr {
    key: "_class"
    value {
      list {
        s: "loc:@dense_29/kernel"
      }
    }
  }
}
node {
  name: "dense_29/bias"
  op: "Const"
  attr {
    key: "dtype"
    value {
      type: DT_FLOAT
    }
  }
  attr {
    key: "value"
    value {
      tensor {
        dtype: DT_FLOAT
        tensor_shape {
          dim {
            size: 30
          }
        }
        tensor_content: "\261\3512\276\000\000\000\000\006TG>\344\200\266?r\203V?\342q\204\276\341\217\353>\227wR\277\214\002\376\276W\345\370\276\000\000\000\000\004if\276\205\373\240\275\325-P>n&\232\277\254\244V\277\000\000\000\000(ib=\037\216\027=\000\000\000\000p\017V?\357x4?\000\000\000\000\032\231\232\276\026\"\206?\r _?\242n<\274\000\000\000\000\0216\251>\000\000\000\000"
      }
    }
  }
}
node {
  name: "dense_29/bias/read"
  op: "Identity"
  input: "dense_29/bias"
  attr {
    key: "T"
    value {
      type: DT_FLOAT
    }
  }
  attr {
    key: "_class"
    value {
      list {
        s: "loc:@dense_29/bias"
      }
    }
  }
}
node {
  name: "dense_29/MatMul"
  op: "MatMul"
  input: "dense_29_input"
  input: "dense_29/kernel/read"
  attr {
    key: "T"
    value {
      type: DT_FLOAT
    }
  }
  attr {
    key: "transpose_a"
    value {
      b: false
    }
  }
  attr {
    key: "transpose_b"
    value {
      b: false
    }
  }
}
node {
  name: "dense_29/BiasAdd"
  op: "BiasAdd"
  input: "dense_29/MatMul"
  input: "dense_29/bias/read"
  attr {
    key: "T"
    value {
      type: DT_FLOAT
    }
  }
  attr {
    key: "data_format"
    value {
      s: "NHWC"
    }
  }
}
node {
  name: "dense_29/Relu"
  op: "Relu"
  input: "dense_29/BiasAdd"
  attr {
    key: "T"
    value {
      type: DT_FLOAT
    }
  }
}
node {
  name: "dense_30/kernel"
  op: "Const"
  attr {
    key: "dtype"
    value {
      type: DT_FLOAT
    }
  }
  attr {
    key: "value"
    value {
      tensor {
        dtype: DT_FLOAT
        tensor_shape {
          dim {
            size: 30
          }
          dim {
            size: 30
          }
        }
        tensor_content: "\313d\335>\353\177\016\276\321\004/?^\215\032\277\270\354w\277\262\236)>|\376\302\277\300,\272\277\240\214\340? \375C?!]8? Ag>NZ\027@9+\332\275:\212\223>x\2661@I\252\231\276\017u\232=\347\267\n?\372\346\316\276\366\270\022\276\320v\247?\370%\231?\200\324\377\277\370\n<>\257\231\265?W\316s>\034\021\360\275\201\003>\276\001\260<\277\000\n-\272\210\271l\276\271\336\204\276\357\023\220>\323\273R\276\034\262\267=\3701t= :\261\2745)\214>0D\017=\247\222\033\276\272\265\r\276\306\374v>\224\353\354=\013\023\224>b\260o>\031T.\276F\226l>\345\"\026\276\204\371m\276\301\356e\276e\261\237>x\033\027>\350+1\275\200\222\005\275\000\206s\275H\337\004=+h\224>n\3645\276vo#>\217W\302\275\270%L\276\037o\235>v;\316=\000\203\370>\305\341\224>zq)\275\225D\217\276\234\333\337\275J\003\214=>\354\016\276$\345O>z\303\247\277g\032\224\274dFX\275\351\263\033\277`w\343\276rd\210>\031q\031\277t\253\340>^\246.>>\350_?Q\216\302>-^\037?\007\327i\276\263w\351\276\377\355\203=\242\000\215>u\207\372\274\n5\274?\246\365y>.\207\335\276~\0332\277\030\344\223>\326d\215\277\342E\321\275\3160\337\277\331D\257\2755+\372>\347*I?+8\265>\223\3312?\273$\343\276\315~@>F\007\014\276\210\207\364\275-\240\013\277\243\216\010>\2416l\277T\t\274=6\255\233<\377\257\264\276\272\t\035?\022bX\277j\337\356\276\203F]\277+\365\010\277\371~$\276\355\236f\276\267\300-\277\030\200\324\276\211\275+>\270\024\302\276\250\271\020>q\2154\276\r(\227\276\247\000\322=r\301$\277\200\213\325>uPC?n.\277=\245\343\350;\315H\356\274=z\244\2769P\242\273.\006:\276)\260\344\276\364\030\277>F\004>>\273\366\"\277x\317\204=\2372{>K\255X>\020^\"\277\200\353\250\276\177\366\221>\033\241{=|\337\350=\277\026\013=\205\333\003?\277\235J\277\337\227\320?\024\010\327?\022\364p\276\2258\202\277\221\377W\276*\342\255?\n\262K\277\004f\234>@\301\027?\013\327\t\277\'\352\005?\r.P?\331B#\275H\227\270\277\354\276\254\276\001\010\006?\307\314\250\277\003\212\246=\0023\233?\000a\237\276\261\302T\276\227u\002\300\273\320\031@\353\007\374\276E\234\311\275E\362\231\277\020\240\037=\325R\033\277Jh\207<\034v\331=Z\230\304=R\356\003\275*\r\352=}\rQ\277\210O\231\276\0375\004?\362\210\223<(\255h\276\267\336Q\276-:\204\276D\005q\276!\330\026?\322\000\343\275\265{J\275w[\006?\245\nh\276\\\344i\276`\005\276\275$L5\275\036\321\034>\361\221D\276^\007\t\300\341o~\275B^\302<\233o\222\276J\216\356>\022{\217\276\300\'^=\212`\017\277\373\223\231>\357\240Y\277A>\235?o\262\303\277;\223\272\276=(\237>!\326E?\271T\213?\005i\315\276\304L\240=eb\302\277\252cj>\375\004\347\276L\200Q\276&\020\200?\245\006G?-\371\205?\304\374Z?\330\217\014\277f[\224?\363k\000\276\361.$?\307\260\220\2775 j?\331G\265?\017\023\252\277r\316\250\276\3752\222\276\367\211\000?\222\240L?\346\010K?]\327\237>4\362\207>\343\300 ?b1\020?\200\360\377=\276a\211?\0130p?\253\325\371\275K\307\314>[w/>;\264\253\275^.7\277\274\224y\276\226)X=\006<+\276h\230\177?\007C\250\276\330\177\244>\221\036\276?x\355\276=\373\274\177\300\247)\335\277m\373k?\360\300\337=2\353o?r\231\326\275\334K\256\275Y\250\376\276\312\252\240\2774v\202?\376\336\023\277\263\365\313>\253\274I\277\237\210\014\277\337\271\214\276\230\025\372=q\307\200?\256\333\311\276\221\2439\277\201\3240?G\352\202\277\377\216\037\277\304\326s\276\216\265\210?\336H\347>\345c\235?3\310N>\234g\214\277\305\0257?\020\210\202\276h\366\244>f\3120\277\024ZE?m\263\222?\263\251;\276\360\017\004\275Y/]\276t\364\203?v\215\202\276\0228.\276pB\346\275q\260\237\276\222\274~\276\304\020L\276W\216\230>\366 \213\276\215iC\276\034{\024\276\301\225\233>\306\201\377\275d4~\276J\325P>xW+=\200\321\317<Y\361\237>\267\2646\276\"~\327\275D7\371\275\312\010Y>\200\3118\274dE\376=^J\233\276V\347\035>\330)(>\210t)=\227\227\201>\214;\201\275s\034\217\276\310\250\205\276\273X\227\276\004@$\277\222\317\250>\241\360\337\276\376Kh>2\003W\276b\314\252\276\243o\241>\016*\240?\345\245e\276\025<%\277\177\307\356\2761\312e\277[h\214\276.\177\031?\326\351\343\276\"\'\323>\010bT?i\005\236\276nl]>\260\322^\276\304\313\213>2a8\300\372\001\321\276\256^\004?\261\203\247?\376\345\237>\345!\342\275\303\3252?\032\333\257\276\272\211\342=W\346\211<\\W\364\274hyW\276Q%\324\275-6h\276^\245\343\275B!\217\276\222G\363=\031h^>#w\225=\2339\322=\331\023\233=\312\250v>mz\303\274\277F\034>\336\267\306=\217\235g>\246\\\213\276\\d\264\275\363\263\220\276%\276A>\236\275\220\277\214\1774\274\202\242\001\274\322\212g\275#\211L>\026\241\252\276\037\n\237\276\240\332\247>\005Z\t\277\366\304\223>\263\373\243>\216\232\353\275\333\n\260\276\300\002\266<\276>!\300\226W\036\2778\262\266?a+\003?\317\023\345>\344\245\317>\237N9\277\342S\026\276Q\222%\277@\'\"=\321\376_\275P\340S>\352\245\205?\363Hr\276p\365$\276cQ\243?\347\017\343\276\266\216\233\276U{\327\276\225\357\316\273\371\'\251\276K\033\370\275p\353A>H\243\225?\260jF>J\276\r>\330RN>\257\335\364;\272\307\003\277\354>=\276\370\277:?\373K\243=\021N\260\276\016\'\207>hF\320\275\357X\006\276xGg>y@.\276\206\372\010\275C\013}?Q\245\022=\320d\002\277\023\226}\276\304!\212\276o\321o\276\000\211L=H\324\247\277\034\322o>*79>kIa?=\325\227>\302\362/\276\034&\225\272\256,1\277\352\331\243>\275\207:\276\032\'k?b-\341\276Q8\223\276\244\235\004\276\023n\336>^\001\017?\352v\016\277.y\013=j=\036?\237ha\276\356\213\037?\002\233\204\275\031\202\270>\234CE>\227Uy?\345a\311>\205J\213>\370\326\325>\036\346\254\276\247)\200\274\265\345<\274\244\2564?\234\005S?\357\003\003?\016\0351\277/\200\006\276\331\307;?w\003\213?\225U\216\276\322P\036>\316\\z\2769\354\224>\372\274m>\000 ?\273\356\"C>\363@\235>=C\224\276v\212W>\206)t>\210\0374=\303\226\205>6F\242\275\256\373\203\276\226a\214\275c\247;\276\371\2629\276\272\241k>\274\342\327=\374.\322\275p)\241\274\221\024\225>mK\225\276\216\344\221\276\020h\033\275\034\202\221\276\370\203\306=Zp6\276 \232\024=\270\353\202\277\010\365%@X\313\263?\010t\343=\374u4\277<\001c\276Z\250\367?\221\370\363\277\030D\224\277\320\000\271?G\377\221\277\033k\371?\300O\023@\211[\310\2732\222\027\300o\026\036\277\311\351\263\276\347\366\371\277\326\362\037@SC\374\276\014\231\207>]m\264?\307\000\223\277\005]\343?D\203\203\2772\037\336?\261\326\307\277\257W\214>\016\273\254\277\253\215\030@\310\037==X\230\247={\300\002=\333\031\274\275\326/\230=\240|3\276\260C\247>\022(\257>\255\216L>\272\013\241\276J;e\276L\304\251=g\307\270\276\353s\204\276$\033\007>yG\313\276P\335;<\263H\024\276?>(>Kp,?<\001y=o\360T\277\367`n\276;\263\222=M\222\016>\335\232\311?\177t\246=\364[a\276\203\214\035>\"\\q\276\032\262/\276\306\"\225\275\340?\r\276\200W,< W5<\252Jh>\312\271N>l\211\207\275.\354\332\275\334\347\341=\334<\177\276\206\307L>Q\266\204\276\320\357l=@k~\274r\213\232\276\026\336e>(\235\022\275\366!\342\275\364Q\220=\016L\221\276\3325 \276\202\343\341\275ghi\276\362\210\336\275\340\374\343\274\300d\375\274\300\020\216; {B=\314hs\276\265\331\253>_\0047\277\240\302\374\275\025^\337\276\250\256\274>q\307>\276\\\330\025?:\260G\275\250\325W\277\201U{\275\334\017\312>\247\234h?5\231o?P\223\t=7\3305\300qS\245=\0138\376>\277\240\004?\317\022\246\276\376\035k>\020jO\276|\310\201\276\240J\034\272\t\346\243?4\331\215>\002hD\276\235j\n\2774\313\327<\334\262\333\276(\t2?\271v\367\275]\022\264>\"\255+\277\226\013\324>\316Te\2748\312\036\275\n\203\373\276M\360X\276\303x\026>\001\223]\277\021\013l>\356\336\374>\017\372\215\276FI\021>\273\203\303\276\304\310\313=Z\237\252\276\010\002\333\276m_\000\275by\330=\335\372+\276\271rm>\377\016\357\276\001\007X\277\036p\022\277\201\225\026?9\310\343>\301\310W\276\327f^\276r\301\207>\205D\240>\270,9>\004M\201\275\316\211u>a\021?\276\255\246\235>\360\274p\276\245\236\235\276\340\337\005\276\010\204\271\275\250\322L\276\201Q\210\276R\r!\276\030\023!>\326\363\177>\273\201\232\276\340w\377\274\010v\000\275L\301;\276\252\'R>0\233\'\276N9b>\337Q\212\276\335#6\276in\227>.\225n\276\200l\240\274\207L\001\276$HH\276\364\177\001\276 \333\253?\203\252\251\277\311\376\241\276\215\027P\277\321\324\211\277XN\205\276g\033\264\276\346%\000@\315\352\230\274\002LZ\276\227m\333?N\n\303\277:\024\362\2775F\225\276\271\220\005@#\'\271?\325O\213?\251\320\245?\256=\255\277\255\274\226>\264{\036\276\352\242\350>(\253g?\ty~>\241\263\350?\255\204\203>Z\304@\277\343%5\275\365\262\342?\010\rt?t\276\346\277\256\232\022\277+r\014\301%\265\022? \354?\277\020\376\273<*\362v>\250\177\323<6\361a>\311t\300\276\351\220\346\274y\\\024?\242\017\340\276\345\201k>\334\235\271=D\031\013\275i\264\261\276g\330\\\2750\256\247>|\230\303\277\203\375,;nJB\276\234k\004?\365\007\014\277GDF\276\222\373b;\227\344\374>Vr\027\276\315\2278\277\rS\216\277\260Q<?\266#\253>5\023\221=5\264w>\350\316<\277\240e\235=hT\250?j\244\232\275(u[\277=\253\340\276H\231\006\277\234%\314>;<m?\014^\273\276\254\367\021>\216\325l?H\3315?\370\267\251\277F\207\001<\343r\322\277\271\265\220\276\266\004\214\277\023\237C\300\275\352\230\276\032\355\323=\357\177\037?\016S\205?\200hv\274\006\\[<\324\030|\300\t\352Z\275`\373\231=b\243\355\275.\3275>\240\314\021\276\234\365\220=&\021\026\275\005N\366\275B\nt>\016\267\270\275\221\222\226=t\320\217>p\335\244;B\003\344\275g\007\031=\206\252\320\274\025!c>Q@\217\276!\340\223>s\273\335<\006\307\027>\r+\027\276\010\363\034=\222\345\231>\320\031\204\276\204\t\005>\306~\232\276\300\204\201=t\251\236\276\024I\203=\302C\022>:\022s>J\275v\276\370\227&=\304\023\213\275 \227\244\274\000hD\273\252Y\'>\311=\206\276\345\275\004\276`gq=\333\355@\276*T\\>]\347\215>\t\320\227>\npN>\257\337\224>@o\315\275B4\016>\234)\244=\350\2128>\r\021\210>\330H\240\276{l\240\276r\212*>\251M\214>p\0323\276\010%\240=\002\346\177>\244\220\352=\316\266\025?\240n\036\276$\355\356\27411\027>\351\363.=$\360\205\275\t\235\343>\300l\313>\310\223\032\274D:\241\276\0022\361\276\277\221\202=\260-\025\277\177\230$\276\332\260\337=\244D\203>\205\201\201\276a}\301\276`)N\275\005\365n?\030\223\224\276wA\243=.\024\203>\323\261~=m\n\342=?\t\016?\222P\326\2767\367\253\275\372\363\024=\370-\302\277\010\317\247\275N\262V\276\337\357#\276\340\250\037>I\321!\276`\031\377=\215\205(\276\306\211J>,D\346=\016\306\200\276\201\0070\276\306\316r>\244]\027\276\266\271\010\276Y\337\206\276\231u\222>\000\226\342\274\034#\274=xb\177\276\006\374P\276\320\236\236<\210W\247\275\345H\225>m\'\'\276v\271m>\030\246\006>\240Y\231=\006\332U>@\325\354=\246\333P>"
      }
    }
  }
}
node {
  name: "dense_30/kernel/read"
  op: "Identity"
  input: "dense_30/kernel"
  attr {
    key: "T"
    value {
      type: DT_FLOAT
    }
  }
  attr {
    key: "_class"
    value {
      list {
        s: "loc:@dense_30/kernel"
      }
    }
  }
}
node {
  name: "dense_30/bias"
  op: "Const"
  attr {
    key: "dtype"
    value {
      type: DT_FLOAT
    }
  }
  attr {
    key: "value"
    value {
      tensor {
        dtype: DT_FLOAT
        tensor_shape {
          dim {
            size: 30
          }
        }
        tensor_content: "\252a\220\276\031\037\">\327u\\\277%\2653?\312~\204?\000\000\000\000\334\005S\277\213\246\343\276\034\267[>\276\373\260\274E}p\276i7\205>\350\026\210>\033\027\202\275\375W\213\276\0264\002\277\357\245\017\276\364\216\203>\321H\266>\207U\002\277\030\024\002\275m\203\264\276P\343Z?\274-\006\277\312\362O\277`F[\277\270Y\322>\330\347\001\275\243I\227\275\016R\360\276"
      }
    }
  }
}
node {
  name: "dense_30/bias/read"
  op: "Identity"
  input: "dense_30/bias"
  attr {
    key: "T"
    value {
      type: DT_FLOAT
    }
  }
  attr {
    key: "_class"
    value {
      list {
        s: "loc:@dense_30/bias"
      }
    }
  }
}
node {
  name: "dense_30/MatMul"
  op: "MatMul"
  input: "dense_29/Relu"
  input: "dense_30/kernel/read"
  attr {
    key: "T"
    value {
      type: DT_FLOAT
    }
  }
  attr {
    key: "transpose_a"
    value {
      b: false
    }
  }
  attr {
    key: "transpose_b"
    value {
      b: false
    }
  }
}
node {
  name: "dense_30/BiasAdd"
  op: "BiasAdd"
  input: "dense_30/MatMul"
  input: "dense_30/bias/read"
  attr {
    key: "T"
    value {
      type: DT_FLOAT
    }
  }
  attr {
    key: "data_format"
    value {
      s: "NHWC"
    }
  }
}
node {
  name: "dense_30/Relu"
  op: "Relu"
  input: "dense_30/BiasAdd"
  attr {
    key: "T"
    value {
      type: DT_FLOAT
    }
  }
}
node {
  name: "dense_31/kernel"
  op: "Const"
  attr {
    key: "dtype"
    value {
      type: DT_FLOAT
    }
  }
  attr {
    key: "value"
    value {
      tensor {
        dtype: DT_FLOAT
        tensor_shape {
          dim {
            size: 30
          }
          dim {
            size: 30
          }
        }
        tensor_content: "\305Z\234\276_\025\034\277 5\312\275[\274n\275f\230.\276\265F(\276\263\002i\277\364g\342>\260\246\203\276!\347\366\276\216\231\320>\212]\262\277H\233\t\277\254Wm\277P\341\026?4\213\177\276W&\231?\027Q\376>5\350\364=B\304\270\276\353v\037>\200iN>\275\004\327=[\244d\276\035[\354<\341\276=\276L.\222\276*2\003>d9e\277\372\365\014>\236$\320>\271\223\025?T\366\177>\277 \273\277>\337\214\275\274\343>\276\225\0351>\253\231\307\277<:\247=.\246\236\277g\346\301\275Seb=\201o\214>\300Y\212?\226mA\276\276w\233\274\345F\223\277\214\002\036?\310\277\233\276L\347\333?\201\001\201>P\3741\276~\275\361>\365\322\216\276\370\262\026?S\304\206?\325]\202\276\262\003\360\275\361\262\314?\027\367\366>\245\321e?s\265L?\273\021P\276\232\320\032\300x\0314>\331\257\302\274\327\306\200?Q2-@\356\367/?\306\306:@=\032\003@\313\375[@9`\245?\276\313\210?\354\344\203\275\332Ee\276_\235D>\031\274\033@\207d\235=\232\206\206@\033\341c\276\2021>\300\350\251\013?j\361\000\276N\320\266\275\'p~?\240p\034>\361.\201>\330\344s@I\301\254@\203\273\241>[\365m\276\211\212\243\276%-\352\277\033\360\023\274b\026;\276V\262\027\2769+\203\277G\257\254\276\202\006\373=|\004\"\277\335\302\331>\307)\253\276!_M\272\024]\261>\327\250\226\276z\200F\3006Fr\276W\0067\276N\265\345<\242\007:>\215\213[\276\301\214\315>\316\027\360\275&\313\352\274\214xI\276ZM\201=\177\302?\276\350xb?\331\222!?\243?\016>\354\230\323\275Q\246\335=\035R\033=\331\331\250<\233UE\276\325E\007\277\325\367s\277\302\243\264\277\327\254^\276\014\326\014\276\360\206\"\277\257\373\335>goC\277\327!\024\276\314g\246\276k\271\245>\211m&\275\277\266-\276\223\276\345\276\232\270$<\322\276\256\276iT\274>\000\233\216=[\020\016?\234\2126>\332\324\210\276\361\001\023\276\033j\276\277C\033\016\300I\214\241\276N\033T>~\232\223\275\3220h>@\r\365\2740\t\271=\274\"\002\276\213@\213>&\231\000\276*\266$\276\200\212&<\231\315\224>\255\231\224>\034o\257=\024\267\225\275\240\014\335<-\304\210\276h.\236\276\234\327\177\276\320\030c=\2425&>f\236P>\240\351\250<J\305\210\275\364e,>\356Rg>\030\0213\275=_@\276\202\333Y>\260qF\2757\230\243\300\356\321\201\300\312MQ\276J\217\232\277\336\236\220\274\002\010\005=\010\202\303\300V\341\214\277\333f\314\276\235\r-\300\245\334\n\300t\257%\300\320\021\202>8/\245\300I\205\265\27758\221\276\350\276\010\277\336\314\232\300\302\276\026>\204^\226>\214\216&>\345\365\214=^\003\232\277\304\2347\276\361\315i\277\242\241U>p+\024>z\206?\276\034\035\203>bP\260?-\207\307\277\214\343\355\277a\270\r\276\315+\271>\314\245D>\2369\251=\334\013\256\277R\013\363?\272_\320\276\0160\257\276\373\223I\277cn??\3741]>\240\200\013\277\210\025\221\277\277p\016\276\350f\311=\312\001y\276\n\274:\276b\331\265?\273vr\276\345\2303\277\221\346\006\277\020\263\356<\320\231\202\300\276\215\304\277\216\235q>\216\335\277\275\204\257\221\277\2427\003\277z\234\"<\'\355\025\277\344\374\243\274D\350\270\276Z\034\377\275s\n\206\276\342j\235\276\034\365\372\276S\313\211\276\236\354A?O\266P?Yo\266=\347BB>\323\014\205\276b\360h?\255\346A\275<\314\233<\342\005a\276\263C(\274<\027\014\277$\302\201\276\316\2452\276=R\031>&\270\200\276C\034O\276kjG>\026\316\316=NL\035>\231\017*\300\204\353/\300\334\266\010?9\005\034?+\036\201=\277u\'\275\354\210\032>\232\350\024\276n\212\346=y\330\372\277\365/3>\257\251\270\275\325\322\030>nhc?3J\030>\255~\026>\016x\340\275\375H\354\275r\367\241\276-\221\311\274\237\247\224\274\364\245\256\275\214kF\276\214o\264\274\355\222\366>\014\224P\276\336\003V?a\273\354=p\300\014\276\216\375\220\275\313#\262>T.\311>\353\333\273\276\353\027#\277%7\221\275\014\\(\276qVM<g\327)>(\'\361\276\364\003<>p@\204\276_<\271>\356\370\026>D[\031\300\024\332j>[\351~\276O\366\234?\242\375Z>s\006\t\275[x:\277\34586\276\263\273\251>`\370G=\263\3518\276\347\354\021>xi\220=\'g\321\276\207\332\342\274SB\301\276\327o\361=_\017\236?\220\223\257?\024\267e?0\0229?\332l\033\276\253\002\373=R\261\261\276\232D\242\276\343\265\320>Nn+\276\300|\355\275yZ\206=!\024#\275\2468\347>\274\315\032\276\334\366$>c\307D\276\207\304\231\275\351\266j>\023\254\317=\3357\025\276\256\305\214\277M\004r\276HMw\276\227\257j?\030\226$\275C\233\205\276\222@\036?\236\221R\276\214\266\020\276\207\227\223>\2469\204\276\326\356m>R{\313\276\276-\266\274\t\3457=\376\272\336=\316\032h\275\372\026\357=\241)=>\222\226\272=_9\301?v1C\275\356\002\031@\026\233\004?\361\3432?\341\312\030\277\304;m>{\233\000?}\231\320?\\\003 \276\201V8?\347n \275\254\217\214<\032\324\316>\374\335\314=\273~A\276\327?\210?\022g\014>\261\270\241\276\305\242\263?\030\316\356?\033\310\260=9\220\267\275\303\350\204>\236\300\000>T%\370=\"\346d>\026)\203\275\240m(\274\245\341\202\276{v\206>\2249K>\234\345\252\275E\026E\276\322\331O=\300\243U\275\266\277\332\275\311\270\225>\0265\214>,K\206=\362\227n\276\020\021\351\275h\311u\275\217{d\276k\266\235\276bA\277\276\257\2326\275~\320\024>\314\203\t>ru\200>|\361\237=\016\316\230\277q@\370\277\005\237\242\276\3373q?1<\r=\256\267\307\276(\225m\300\233l\275?\321.\250\276\242$,?\"\312\013\277^\365\267?\205\207|\276MgW\300:f\007\300X1\020\275\004\006?\276\334\'\361\273\244P\010>y\223\340?\204\317\267=\304S2\277U(\020?m\265\236\276HB\231\300\307\206\004\300\003\355x=:\026\231\276\r\r\036\277R\211\003>\3232\273\275\034\003\010>\373~\177=\030\325M<\327\257\377\275\303\r\313\276\236\023\274>v\255\033?\"|B\277\350\010\217\275\203|\016?\317\260\227\277<\022\027>\352\016\210\276\321\250\202?\034\333\201\276\014\204\241>\203\033\352\277G\312_\276\254eU>-\230\206\276e\367\r\276\205\003\031\276P\306\264=\244\007\005\277\231I/\277\270P/\275\241}\003>Be(\277A\356\264\277\"q\013\275\005G\276>N6+>_\032$?\251\307Y\276\346\236<=W\002>?z\344\227>-\232\244>\335\177\006\277dM\265\276\367\262\205?\351(V?\026(,?\365_\374\276\345\026(\276\223\313\274=\271;c>)\331]\276\223\371\263<BgE\276\220*D?\177\202*\277/Au\276h\336\206>R\016\001>\250\343\013\276;PL:\243H\005>\230\001\003\276\254\230\236\276\310{\323\276\021\216b\275j\213~=\2515\300\276|\3774>[t\024\277?\306\370>\224\017e\276F\237\211\277\375W\263>\275U\002\277\372\024U\276\014\212\207>\250\226\033\277Uu\375\274\256\263\203\276\305\345\'\275\244\201\243=3r\r>N\277\225\276D\010\355\275\025R\220>0\361^\275\314\335\277>\222&\306\2753\200\007\2766\007\221\276f\366\315\276\\\375\320\276-\016\021?he^?\230\302\262\276\260\000\027=Mw\224\276)\225\225\276=F6?\034?\016\277\305,\237<\367\014B\276\001\017h?\316\026a\276\243\0342?\217\313\341\276\355(^\276\314\267f\275@\364\276=\3107c?\'\253\004\276\371\364\'\277\346\006]\274\312B\240\276\225zg\2750\357\353<F\343\022?\356\335\352>\220\367\224\276t\251\334\275g\225{\276\304\003w\277\013-\226>2\315\021?=\355\253\275\264\006.\277\306\306\232\276*v@>\005\317\033?\304w\030\277_\275 \275\357\220\246\275+EL>=\006P=\355Hs\276.&\321=\036\317\024?w\254\335=F\000\252\276=\216\203\277\203\326\332\276l\374&\275\332w\343\275\r\222+?qf\325>.\310\215\276A(z>``\336\276^\035\251\276MUs=\024}*?\306\3079?\346\025\203>\253|\314;\350c\223=\212\351\\>\346\244v>\014\233G\276[s\n>$\213\335=6\275\026>\024G\030=\003\020\327<\213l\232\275\211V$>\254\323C>\327e\236\276\360\331\374\274x\252\036>V\354v\276}~\235>~\246A\276\354\341\252\275\340\361\021\276\313\004\237\276R,\271\275\346\267w\275k\026m>\306\207`\276,\232\320=v\312v>O5\230>2\215\256\276B\236\241\276z\'\217\276\274\263\372\276\022\342w>}\036\247\276)\336\305\276\324\001\001=\347I<\276\250\231m?\032\264\"?U\230(<\233\304V?\204*E?h\370e>o\202s\276\226\013)\276_\235;\277g\247{>]\017!?\326\322\306\275\327\036\200\277\316\247\231\276o\253\204\276iT\341\276\270\346.\276~\336;>\340\026\226\276\333\372\224\275\357\302\234\277+%\345\276\333\014\020\277\215P\226>c\213u=\222\245-> \275\255<\210\306/\277\353G\255<D\255M\276_\306\215?s\271:?\365B\253\276C\202\341\277n\223:?\010\'\351=`\033\341=(w\204\277\314]\236\277\250\342\023\276\266\206c?bt}\276f\300\225<\376\330G\277`b~\275\215\240\205\277\026\207,\2772\300<>P\'\215=\374\220Z\277z\301G\300vY\376>\270\362\203>mt\361<O\031\014?5Ow\275\271p\360<d\032 ?U-\335<\371\370\301\276\236ZY?\014\375\337\275W$\023\276\220\252\345\276\017\361r?\204A\340?@\355[>\260Aq\274\246\000 ?v\325V=A\006d>\233sU\276UM\352?\376\327\232>\010u\033\275B\361\004\276\023\007\221?tAf\276F\220\313\276\335\r\235?rx\007?O\217\262\300\016:\324\300\275\374\247=\251z\356\276(_\301=\233Y\305\276\235\024\027\301\215\232\322\277\233u-\277\314\032L>!\216\354\277\276\305\023\300\t\214\236\276\233\037&\301\323\375f\277\234\233j\276\332\326\212\275\330e\311\300:\263\003\276\005\230\027@\265b\240>\215\270\034\276\226\2043\300\312\372\376\275\361\371q\300\232\242\243\300mV\225\276\320\032\342\275\317\312B\277\333\317N@QZ\257\276\200C\024?\310w\331=\016;=<\207\230s>\220\345K>P\272\242>\305(\021?\035\344\341>\230_\332>\025\214\261\276\302\303\346>k<\000\277\275\325\341>\334\307\273?\260#\'\275c\340_\275\017*\006\300%\303m\276\325C\264\276@\227\216\276,;_?\314\364w>\211\013M\276\323L\023=\217\355\322\275\021\010\007\276\nl\342={\2028?l\007\225?8\346\237\276\330Q\000\277+\233\246\276\275_\237\276\206!\031\276a!^\2761\351\n\277<\020p;_\311\231\272P\235\273>M\356\255\276o\344\031=\217]\035\277{\367\021\276\351u}\277rO\201\276%\372s\277<b\234>\263\263=\276\232!c=\244Q\251\276L\317h=\323n\010?\200\354:\274\273\373\311\276%c\246\275\241\244\257\275\0326\234\276\024\016\020?i\352\203?]\034!\276{\\?\276^cA>\000h\203<\334\363\310=\354\3239\276\327k\257=\250\326\n\275\027\357\350\275\333.\t\276\226\031I\276\203]\037=\265)U>(\330J\275\303\350\241\276\233\005\203\276\304\007\241=\033\3573>\274\272\025>`\330]=\334\323\367=\224\024\265=\371\326\214>\347\203\214>\251\231\021\275\242\264\242\275$g0>6\021\312\2750\221\374\274\347\307\025\276\317\024\216\276\274\252\303>?&J\276\235\367\000?w\222_=AR.\276\260\007v>\261\341\020>\222S3>\341\317\273\2767q ?\342\006\351\277\273\202\202>w\241\304\276\342\326\274>\350\227\223\276\305t\226>\235\214r\277o\227D=\2221\234\276T \243=;\223\371>\210\344\364\276~\327r>k\320\225\276y\200a\276D\320[\276\216=V\276\272\267\242\276\371\310\273\276\320&X\2762\377T\277l\245t=\234\357a?\336\t\350=\234\237\232\276\025=3\277\373\352\003>+\270.>\356G\t@E\312\241>s\232\357\276\347\034\027\277\301\254\371=N\212\000\276\303\233\226\276\2044\364\275r\3718\2773\220\304=#\325\003?4G\204\275\246\216\354>\026ys\274\370\\R\275\004\274\262\277\001\3403\277\230i\241\275\201\260\215\276\200b\364<A\263\006?"
      }
    }
  }
}
node {
  name: "dense_31/kernel/read"
  op: "Identity"
  input: "dense_31/kernel"
  attr {
    key: "T"
    value {
      type: DT_FLOAT
    }
  }
  attr {
    key: "_class"
    value {
      list {
        s: "loc:@dense_31/kernel"
      }
    }
  }
}
node {
  name: "dense_31/bias"
  op: "Const"
  attr {
    key: "dtype"
    value {
      type: DT_FLOAT
    }
  }
  attr {
    key: "value"
    value {
      tensor {
        dtype: DT_FLOAT
        tensor_shape {
          dim {
            size: 30
          }
        }
        tensor_content: "\374\336\004?\357[\265>\341\026.\275\342\275\030>m\035\217\275\221\225\270\275\326\356\'>\236\\R\276\315\371\275\276\217\307\210\276\351\211\307>p\370$\2778\345\262>m\245\276\276~EG\277\277\014\202\275tn\274:\203\031\317>C,\002\276Z\333i\277\367\021\202\275\240\325t>\257\267\372>\000\000\000\000\032\205<?{\023\231>\373\016Y\275\316\034\004\276\233+ \277\343\320\022\277"
      }
    }
  }
}
node {
  name: "dense_31/bias/read"
  op: "Identity"
  input: "dense_31/bias"
  attr {
    key: "T"
    value {
      type: DT_FLOAT
    }
  }
  attr {
    key: "_class"
    value {
      list {
        s: "loc:@dense_31/bias"
      }
    }
  }
}
node {
  name: "dense_31/MatMul"
  op: "MatMul"
  input: "dense_30/Relu"
  input: "dense_31/kernel/read"
  attr {
    key: "T"
    value {
      type: DT_FLOAT
    }
  }
  attr {
    key: "transpose_a"
    value {
      b: false
    }
  }
  attr {
    key: "transpose_b"
    value {
      b: false
    }
  }
}
node {
  name: "dense_31/BiasAdd"
  op: "BiasAdd"
  input: "dense_31/MatMul"
  input: "dense_31/bias/read"
  attr {
    key: "T"
    value {
      type: DT_FLOAT
    }
  }
  attr {
    key: "data_format"
    value {
      s: "NHWC"
    }
  }
}
node {
  name: "dense_31/Relu"
  op: "Relu"
  input: "dense_31/BiasAdd"
  attr {
    key: "T"
    value {
      type: DT_FLOAT
    }
  }
}
node {
  name: "dense_32/kernel"
  op: "Const"
  attr {
    key: "dtype"
    value {
      type: DT_FLOAT
    }
  }
  attr {
    key: "value"
    value {
      tensor {
        dtype: DT_FLOAT
        tensor_shape {
          dim {
            size: 30
          }
          dim {
            size: 1
          }
        }
        tensor_content: "~\002\252\276\372\333F\276J\251\016=\025\014\005>\300\270\177\274\205\022\346=\277\310R\276k\320\n>\350\177\366\274V\337\200\276\246\265\223>\251!.>\246-7>\000\313\360\276\346\363.\276\033\371\031>\312\231\304<\305\360\020\276\207H\321\274\231\002h>\346N>\276Mn\230>_\251\213\276\220\201\020=\205\302\037>`\030\020\276  V\276\333pn\276\205\341\377>\356\265\211\276"
      }
    }
  }
}
node {
  name: "dense_32/kernel/read"
  op: "Identity"
  input: "dense_32/kernel"
  attr {
    key: "T"
    value {
      type: DT_FLOAT
    }
  }
  attr {
    key: "_class"
    value {
      list {
        s: "loc:@dense_32/kernel"
      }
    }
  }
}
node {
  name: "dense_32/bias"
  op: "Const"
  attr {
    key: "dtype"
    value {
      type: DT_FLOAT
    }
  }
  attr {
    key: "value"
    value {
      tensor {
        dtype: DT_FLOAT
        tensor_shape {
          dim {
            size: 1
          }
        }
        float_val: 0.3317403495311737
      }
    }
  }
}
node {
  name: "dense_32/bias/read"
  op: "Identity"
  input: "dense_32/bias"
  attr {
    key: "T"
    value {
      type: DT_FLOAT
    }
  }
  attr {
    key: "_class"
    value {
      list {
        s: "loc:@dense_32/bias"
      }
    }
  }
}
node {
  name: "dense_32/MatMul"
  op: "MatMul"
  input: "dense_31/Relu"
  input: "dense_32/kernel/read"
  attr {
    key: "T"
    value {
      type: DT_FLOAT
    }
  }
  attr {
    key: "transpose_a"
    value {
      b: false
    }
  }
  attr {
    key: "transpose_b"
    value {
      b: false
    }
  }
}
node {
  name: "dense_32/BiasAdd"
  op: "BiasAdd"
  input: "dense_32/MatMul"
  input: "dense_32/bias/read"
  attr {
    key: "T"
    value {
      type: DT_FLOAT
    }
  }
  attr {
    key: "data_format"
    value {
      s: "NHWC"
    }
  }
}
library {
}
